12 f0 f3 ef f5 0d eb 05 f7 f4 09 e4 eb ee f5 ed 03 0e fa e4 1a e7 e1 07 fc f0 e2 04 e3 e7 0c ec
eb f2 ce ff e9 fa ee 15 e7 04 0d ec 0b 1c 20 13 01 f8 f4 18 f9 0b ee 1d e7 00 1a eb ff e4 e1 0b
0f f4 02 16 f5 e6 12 f7 f8 ed 1a 0a e7 f6 04 e3 f6 f9 15 16 1b 11 06 f4 f5 20 de 19 ff 13 0c 16
f7 e6 e9 ee f5 f6 18 19 e0 12 06 06 e9 ed 11 0e 1d 0e 0c e8 e1 11 03 f8 f4 10 0d f7 ea 03 00 ed
eb eb 11 f4 02 16 0f 11 e8 da 15 fd f7 f5 13 ed 07 1c 03 07 08 ff ff fb 18 06 01 15 1b 13 0b fc
1f 07 13 10 ed 15 f8 f2 12 1a 12 1c fe ff 04 ee 0c ea 1a ea df 0c ea e7 04 15 16 ed 0e 05 fa 05
0a 25 da f5 e6 da 07 18 ec 0a f6 0e e4 f7 1f f8 e7 17 03 ee e8 0f 0a 23 09 fb 1d 0c 07 17 f2 03
e6 e6 e8 e5 ff f1 0e f4 fe ed ea e9 06 df 16 09 02 fc 11 f1 16 16 f3 00 13 fb fc f8 ee e8 f8 fe
05 1a fa e3 02 15 09 0b 05 e7 e5 07 13 f6 ff e6 ff 18 0d 18 18 ff f5 04 e7 10 e0 1b e9 1e ff fa
f7 e4 2c 10 e5 19 ea e4 f1 f5 ef 02 ed 07 f0 09 21 ec 0a fc 07 f6 14 fe f6 f8 08 f7 0e 0b e0 01
1b fa d4 eb f4 e7 0a 0b 06 0f 1c 0e f8 0a 08 07 dd ff fd 02 16 ee ed fd fa ff 13 0b e1 19 16 06
f8 0c 1c 0c 02 20 03 0b 15 e2 18 fa 09 06 f7 fe 16 0f 00 e6 0c e7 03 0f 12 00 17 ed e2 1a fc 04
19 f7 0b 18 f7 ee 05 e7 09 e6 f2 ee f2 e6 fb 0b f1 05 0f ef e5 17 eb 04 19 05 fb e3 ec f3 f5 e6
04 16 ee e4 16 10 ec 1c fe 0b f4 f7 18 17 fe fa f2 0e 00 f0 fd fa ee fe f5 18 f7 e9 0b 0e 03 19
1b 14 0b 15 14 f7 fa 16 fd 1f f1 18 10 0d ec 11 e9 10 11 e8 0b f6 1e 11 e4 19 1c 07 19 05 11 ec
01 1c e7 16 f7 1b 1a e9 fe 10 f0 ee f9 ff 10 fa 14 0f 1a 19 18 f3 f8 05 fa 0f 09 1c e2 04 0c 1d
f6 ea 17 f4 e8 fb fb 09 09 09 e7 e3 f4 f0 e5 ef ec 0c 0b 10 f4 ec f7 e2 ed f7 f5 13 15 e7 03 19
e9 fa fd 06 16 ff eb ec 14 1c f9 f0 0d 00 ee 12 16 fa e6 04 e0 f5 18 de 17 16 10 12 ff ee f0 e6
27 01 16 e3 e8 e8 0c 01 fd 00 16 0f f0 f7 f7 e8 10 09 fd e7 09 e0 11 02 17 ff eb ea ff 01 04 f0
1e f0 f6 1c 18 19 1a 13 e5 f8 1c 0c 0a fe 14 0d e2 f1 f1 e5 f8 14 1a 19 f4 1d 1c 1b f0 21 f4 1c
fa 08 0b ff e3 e2 ff fa 11 ff e0 02 10 0a 02 fe e9 e0 1a 0d ed 05 0a 18 00 e9 ea 17 1c eb ff e8
0d 07 0b 12 e2 06 f2 13 12 f9 07 11 05 0d e6 eb 1d f5 0c 01 0e fb f9 0c f6 e0 ee e1 fe 0d 0a f4
f4 02 0d ec f5 13 13 0b 0e 12 12 eb 1b ec 0c 01 0d 05 fe fb 0e f6 04 f5 01 0b 07 0b 0b f4 14 ee
e2 f3 0a 0c ec f7 f8 01 08 e8 ef f2 e3 f6 ec f9 0d e7 e3 1a 03 e4 f7 f9 15 0c 00 00 e5 f8 0d 01
e8 e7 1c fe 0e fe f5 17 f2 19 11 ea 18 e3 03 f7 00 1a 09 03 ff f1 0a f3 11 e7 f2 0a 17 f9 f4 04
fc e9 df 0d f7 eb ff 1b f1 2b df 17 2d 0a 1b fd f1 f7 00 0e ec 2a 04 4a f4 f3 33 14 0b fd f4 fe
f9 1c 18 16 11 df f9 0e eb 13 06 10 1d ff f0 f6 fe ed 05 f5 12 07 ec df 00 11 f3 f4 ff 15 f1 fe
fe ec 0b f0 09 e5 f1 0f 1d e9 eb fe f2 14 ee ed ef e2 1c 11 f8 ec ec 06 ec df f3 02 10 e8 1d 18
f6 f7 e3 e3 1a e1 1e fd e8 20 f0 1e fb ee 04 f4 ec 0e fa 09 01 1d 07 03 f8 12 f8 08 ec 04 13 15
df ec 17 08 e1 20 e7 02 02 ee fa e8 11 e0 02 f4 16 e8 0e 05 e1 0e 01 00 fa 11 1d ee ea fc 1f f6
fa f6 10 05 09 1d 19 0c 01 00 ea 13 fd 18 ee f2 16 1b 10 00 f5 e0 f5 03 01 e3 ed 1d 04 f3 ec e3
1a 23 f9 05 f1 10 e9 f4 ee f3 e9 0d ed 0d 1f e6 e8 0d 19 fb e3 f4 05 06 17 ed e7 fe fb 1b ed e6
ea fa 16 f0 e3 2d ed 20 e6 f7 fd de f5 01 ee e9 2a f3 06 0f fd f6 ee f9 02 f1 11 09 f8 e5 00 23
f5 f8 f7 fd 05 01 f3 02 f7 f5 0a ff ef ef 05 09 11 13 01 04 1d 06 18 ed ed 0c e2 1a 0d 18 e6 fa
26 1f d7 11 06 fa 0c ff fc f7 19 e0 fc ed f5 13 ef e5 e3 fa 16 20 e1 ff e9 fd fd f1 0f 11 0b f9
04 0f e5 0b e6 1c 14 19 f1 f2 0e 1a 0d ed 15 07 f5 e8 1b 0f f4 fe 0b 1f fe f5 ec e3 fe fc 10 14
06 06 fa ec 16 e9 1f 04 e3 0e 12 19 18 e3 00 ef eb 15 1e fd 04 df f2 11 f3 f1 eb 1c ff 16 f9 0f
00 fb 20 ef f0 e6 0c e7 e5 04 10 00 f5 19 04 1d f4 fe 15 fd 1d f7 e2 f4 1b fb 11 16 14 1f f0 f8
0d 1a 13 01 ea 1b 0c f7 fa 0e 1a fd 16 e5 1c f5 09 0d 17 f5 00 f1 df 09 f6 fa 04 f0 12 1b e9 11
0b f1 21 00 25 ed e8 1a eb 1e 0f fc 25 1d ff 11 e9 e0 07 f0 13 18 fe 11 0a 07 0c ef 20 f8 03 f6
ef e2 14 15 13 f9 ed 10 06 10 1b 1a 20 e2 f2 e0 fb ff f9 08 f8 0a 14 f7 e1 e6 01 e7 1d f6 f6 fc
e4 17 15 0d 20 0e 0e 18 e8 ed f7 e5 15 12 ef 1a 25 f9 e3 0a f2 f1 00 0f 1e ee f2 f8 0e e7 1b 07
f5 ef 0b 0c 0f 1a fe f8 fd 16 df e8 fd 05 09 14 18 0c ef 0d e7 0b fa 09 f2 0e 02 17 ef e6 0a ec
0a 0f ef e1 e5 f1 04 fa fc 1b f6 e4 0b e3 28 f5 f3 fd ea f0 ec e5 fa eb 01 01 0e e3 eb f3 e2 ea
f2 0e 11 f1 fc 0a f4 1a f6 02 0a 00 fa ef 04 13 07 0b e8 00 1b e6 e4 05 11 10 0e 11 ff e6 18 e5
ee ef 11 f0 e8 f2 01 02 e8 fc f4 10 ea 07 f6 e2 f9 10 1b 0b 05 0a e2 fb fc 10 e2 18 1b fc 1c e2
fd 11 00 fe e8 f1 05 e8 fe ed 0a 04 07 fa 04 09 ec 01 f2 e5 17 e1 ef 0a 03 0e f8 09 f9 f4 0d fe
e0 06 e2 0f e9 11 16 f1 e8 0e ef 18 fc f7 20 f0 15 fb e4 e0 10 11 18 ff ea 07 09 16 eb e4 03 13
01 e3 1a 02 ea 18 13 03 f7 e9 ed f9 f2 01 15 18 fe e9 15 f0 12 e6 ec 0b 06 1b 00 05 02 e5 f4 09
0e 10 0f f8 e0 0c f0 0c f9 02 18 10 ee 0d e2 e2 0a fc 10 1b ee fd ef 0c 1a e4 02 16 09 fd ed 1c
fd 07 09 f4 ec 1b fe 13 04 e5 02 ee dc 08 0a e6 1d fc e4 f3 de ee e5 ee fa 04 15 e4 f8 de fc ec
13 0f f3 ef 16 f1 f2 e4 0b 18 f5 e6 1f 0f 0f fb ea 0f e4 e6 ec ed f7 1b 10 e6 09 08 04 fc 0e e9
e7 0a e4 fb 0b fa f5 fd fb e4 ee 12 e5 fb f6 e4 e0 16 e4 14 f3 08 ea eb 19 f0 11 fa 1b 12 15 05
dc 03 e4 0e f9 ee 01 18 1d 1e ea fb f1 ff 15 e3 f0 11 f3 fb 0a 0e 09 17 f2 fa f4 e1 0b e8 fa 03
e8 d9 16 f7 e8 21 ea f0 ff e6 e4 09 f9 09 f3 f1 fb ed 01 1f f9 04 05 e8 f4 13 02 ff 1b 1d 02 03
01 15 06 16 fc e6 ed 0b fc 0f 0e 03 f4 00 02 19 e6 0e 06 0c ed 1c 00 0b fb e8 f2 1d 0f 1b 0d f8
f6 e5 10 e6 1d 12 ed fc e0 1e 16 eb e9 ed 02 ed 0b f8 f2 07 06 df 01 e6 fd e2 02 0e 05 fa 0b f8
ee f5 08 e1 f5 f3 fa 00 de 0f 00 f5 f4 f8 03 f7 0a f3 01 0e ec ed e4 0f f2 ff 1b e0 f1 f9 fc eb
d0 fb 09 1d 24 1a e3 3b f1 1d f6 ef 2c 14 01 0d 0b e9 eb 26 eb fe 12 04 ed 0d 2a 1d 20 ff 14 0a
0c f5 14 16 f8 e6 1b eb e7 1d eb ee 1b 18 19 0a 0c e2 01 05 05 10 e0 ed 1f e3 fc 11 04 f3 1c 16
10 17 fc 05 f5 1c 02 df eb 15 18 14 f8 0c e4 0c 19 16 0c 16 07 fa 04 00 0a 0e f1 1e 11 f7 fe 17
d1 e6 06 ee 0a e8 f6 e3 f3 06 df 0b f3 eb 04 02 fc ea e0 07 e0 10 fe fe e2 08 12 fc 0c f9 fc 13
01 1c f5 ed 04 0a f7 ff f9 ef f6 e3 04 0b fa e3 05 04 e9 e7 e4 e9 e9 f0 12 f1 f6 f0 e3 00 f3 04
28 14 f5 02 05 07 e5 f0 ed e2 ef 0d ed ef 19 13 ff 13 eb df fb ff f4 ed ee eb e2 0f 08 0b eb e5
