dc fb e7
1d 34 15
e8 dd fc
d1 dd 17
1a 05 ec
0c 02 16
f1 1e d9
0f e6 18
00 f4 24
02 eb dc
2a fe f3
21 dd d9
2b 1d f7
15 1d 0b
27 23 06
ec fd f5
f4 ea 01
f4 31 02
d9 2d 09
17 d6 29
cf d4 11
0a e0 e4
f1 13 1e
f4 df d9
fa 26 27
02 ec 20
0f ef 0b
05 eb cf
e1 de 23
14 36 2d
f2 fb 0d
09 e7 1c
