ed f9 06 f6 f6 f9 0a f9 f8 14 0a 04 fb 00 0b 05 13 ea f3 12 07 fb 01 13 0a 03 11 fa 03 10 f1 00 10 f5 f7 f3 10 e7 ff 02 e9 f8 0c 04 e6 ea 11 f3 f1 f9 02 05 0f fd 06 07 fb 01 e3 13 f4 f1 fe 0d
00 f7 f1 f4 f8 02 05 f5 fe 05 f2 f0 ff 16 fb 04 0f 06 05 05 ea 12 0d 01 06 10 ff ec fb fc 09 06 07 fb fa 06 f6 13 f1 ef 15 f7 05 08 fc f8 15 ec fa f0 f6 fc fa f5 10 ed 13 ff 15 fc fb f3 fb 0b
01 f2 04 ee 03 02 f6 f3 00 0e 0b f9 0a f7 10 0b f2 ff fa f2 eb fe f0 ed e8 02 ee 0f f0 eb 10 09 fc 0b 0a f6 04 05 14 f7 e9 07 0c 0d 00 fd ec f7 f4 fc 0a f3 f9 07 f7 0a 14 09 03 0a e9 0e 02 fd
fa 14 f5 e7 ea 0e 20 10 0d f1 f2 04 f3 f0 f5 eb f9 fb 08 00 09 09 e9 0c 0d 06 e9 0c fd ef f4 09 eb 0c 06 12 f3 10 fe f1 ee f5 fa f5 12 0f f0 f8 ec ed 09 00 01 e7 02 e9 fb fc ec fc f3 ff 05 02
05 14 e2 fb 03 e4 04 06 f9 fe f6 08 07 fb e8 eb 0c f5 13 ed 11 08 ef ed 07 0a 09 e9 07 f9 e4 12 f4 04 e8 f5 e6 09 f6 f6 f7 11 ef 15 f7 fe 06 04 f3 e7 fe 19 ee fd f7 e3 f5 f9 04 f2 0e fe 16 f0
f1 0d 02 fc f0 fb f6 13 ee ed f1 07 fe f5 11 02 0c 08 03 12 f7 09 f1 f9 01 1c 06 08 13 07 f3 11 f4 f9 10 ea ec f5 13 10 04 fd ef 11 0d fd 00 0b 0f ee f7 0d 0a f9 f7 0d 09 00 10 fe 05 0c f8 fe
e8 12 0f fa f6 fc e5 05 f0 f3 fd f2 03 0c ff ff 14 ee 00 0a 08 fd 05 ed f7 f8 e8 0f 11 00 e8 03 10 0c 08 06 fb f1 e9 06 fc 0f f9 f5 f3 13 fe ff 12 10 0d ed 12 f6 08 f8 f6 20 0a ee fa 1a f3 04
04 ea 09 05 f0 ec fd 07 fe f2 14 12 0e fb 02 0f 0d 0d eb 07 04 ec 01 f4 09 fa f5 00 f3 f8 12 f4 eb 08 f5 fd f4 f2 f0 f3 12 f5 0c f5 ed 13 ef e7 13 f5 f8 03 04 f8 eb f9 ee f1 14 07 05 07 02 13
f5 e4 0e f4 13 fa f2 f1 fb ed ff f9 f4 fd 02 0a fa 00 0a 02 ef fe fd 0c e7 d7 06 fa f5 fd fd f4 11 02 12 f8 f9 fe e7 0a 0a 1a 0b 05 06 0b f4 fb 01 ef 13 fd f2 eb 12 07 fa f7 e7 0f 07 e7 fa 07
fc 10 0f ed 14 ed 11 ed 13 0e f6 f5 07 00 f4 0c 08 f8 ea 02 16 10 0f 14 fe f7 f4 f2 f7 16 06 ff 0f ea 15 ff 13 ff 07 fa ef 00 ef f5 12 f3 0e eb fe 06 ef 07 ed f4 ee ea 03 0e f3 ec 01 f4 12 0c
04 ef fa ff 09 07 f0 f9 f9 f1 ff 09 fd f5 16 02 f4 0b ec 08 f8 09 02 ef 00 01 06 12 0c 11 ea 13 eb ff 14 09 f7 15 13 15 04 15 02 05 15 fa 0c 12 f9 f8 0a 03 09 01 f7 12 05 f0 07 0c fb 0d 11 0a
0f 0c 0f ed f1 e8 ec f2 fb 06 f5 f5 06 0a 10 10 ea f2 fa 03 02 06 ff 11 05 06 12 f7 05 05 ec 11 01 03 11 02 10 07 0b ec 00 fc ff 0b f7 02 0a 12 ec f7 09 12 fc fa eb 10 0d 02 02 fb 12 12 08 f5
11 f9 eb 00 09 00 1d ef f7 ed fa f2 16 f7 12 fe ff 10 20 ef 0b f2 fb fb 05 d4 fb fd f9 ef 08 1a df 00 f0 f4 0b ef 0f 02 e6 ea f2 15 04 13 f6 f3 fa 0c e7 10 10 fb e1 ff fd de f5 fc f7 e8 24 36
08 01 07 0c f1 05 f5 f2 0c fa f0 0f f2 ef fe 0a f6 f5 02 02 fb 14 06 f8 0e 0f 12 ec eb 09 0c f6 0d f0 fc ed 09 e8 fa 0a f9 0c ff fc e9 f4 08 11 f8 f2 f9 ef 01 fb 0f fa f6 f7 f2 0f 06 11 00 e9
ec 16 fc ff 13 0d f0 f3 fd fe 13 f8 ec f2 ed 0c 03 00 05 fe ef 06 ea 06 f6 00 fd 06 11 ec 0f 10 10 0b f7 f2 02 15 13 ec f8 f0 f4 fa ff ec 0f 16 f4 f9 04 04 ed 0a 12 ed 08 12 f7 06 f7 f3 0a 10
03 0a f9 17 13 0c fb 01 08 ed f9 08 f5 fd 09 10 f0 06 06 f1 02 ff f5 e2 ed 02 04 10 eb f4 09 1d d6 08 10 11 1e 1c 0a fc f6 02 ec fb 03 17 03 e9 df e8 fc 16 f4 27 04 eb 03 ef f7 ee 01 00 0c 00
02 ea 11 ee 11 12 f8 07 01 16 14 ef 08 02 0e fb fb f0 f7 ec f1 f9 fa f0 fa 0c 12 f6 08 05 03 f9 f3 0b eb eb ec fe 01 eb ec f3 f2 f2 fc 09 04 03 fc 0b ee fc 16 f7 03 fd 04 11 15 0d 16 f1 0e ec
10 fd fa fe fb ee fb f6 0d 0b 13 14 f2 04 fa 03 07 01 04 ef 0b f4 00 15 f9 ec 05 f7 12 f3 ec 11 11 0d fe f4 fc 11 ec 0e 0b ea f4 ff 04 ea ec fe 00 08 ea fe f7 12 f6 fc ef 0b f5 ed 0f f6 f9 fb
eb ef fb f7 f5 ec 07 ee fa f7 f6 05 11 0f fd fb f7 f9 12 10 ee 0c f5 ed 0c fa e8 f6 fc 08 02 ed fc 0c ee 04 ee f8 f6 e9 fd ed 05 f5 f8 10 fa f6 fb ef f3 0e 0e ec f2 0c fb 02 f8 f3 f3 fb f5 0b
06 f2 0d e7 fb f0 13 ec f3 0c ef 08 08 00 f4 fc 12 f0 fb fc 02 04 f1 01 e9 08 ee f0 f2 11 ff eb f6 f3 0b 09 09 0b f0 05 f5 fc 0c 00 f6 02 f9 04 0a ff 12 fa f8 04 f4 ed ef 0f f5 08 f2 08 f6 0b
13 f9 f0 10 ed f5 12 f6 00 07 ea eb 10 14 13 10 f0 f0 fe 05 0f 10 f7 f7 ef 11 04 f1 09 12 02 01 f9 13 fc 09 ee 09 11 0e 06 11 0f 13 0e f1 f1 12 f2 0b 02 f6 0a ee 0a 0e 00 f5 0e fb 16 11 f7 f3
16 05 0a fe fb f8 f6 f9 09 fb 0d fe 06 f4 ff 08 fa f1 f7 0a 16 16 fb f1 f6 ee 09 fe f7 fa 04 ec fe f4 ee 11 ff 06 f7 f5 0c 16 02 0c 0b 04 f5 fb 14 0b f5 15 fd 11 05 0b 02 eb 14 14 ed 09 16 0f
03 eb 0e 11 f7 06 01 eb 04 0c f4 08 fc f9 10 06 11 05 f3 13 f6 f3 11 08 0b f2 0a fd 01 07 fb f1 ee fc 0c fb 0b f6 0e 10 e7 fa f3 f8 11 f5 f6 0e 0c 11 f0 ef 00 ef f5 0a 01 0c eb 08 f8 f6 0c fd
0d fc ee 0c ee fc fe 10 14 e9 00 e9 0a f8 05 0c 10 06 06 06 f4 03 0c 08 f4 fd fc f0 ea 12 eb 0e 0f 06 e8 14 0f f3 08 f9 f9 f6 f3 0f 05 f9 04 01 ef f6 0e 11 fc ea f4 01 0f 0d ef f9 f6 ef 0a 03
0b f6 f0 f2 06 02 05 14 ff ea 10 12 ef 12 10 13 f4 fb fb 0d fd 15 14 0f ec 02 06 f5 10 14 06 08 f4 ff 0a ee 0f 14 16 f5 f8 f7 eb 0f 0d fc f4 fb f4 f6 ec fb 0d 14 0a fd 03 0e f4 ea f5 09 fc 05
0c e6 f0 07 04 ff 2e fe f5 df eb 05 1b e5 f5 f8 ff f4 24 f8 00 f4 fb de f3 f9 04 10 ed d2 f7 39 f8 fc 03 ef fe 0b 18 f0 ef 15 f5 1a ea 0c ff 05 0b 14 ee 2b f9 ff fb 09 e4 e7 fd 0c 09 fc 17 15
06 11 0d 16 fb fc 09 10 0b f8 0f f6 00 f6 fc 11 f2 10 0e 14 13 fb 12 12 ec ed 0b ea 11 0f 0b 07 eb 07 13 0f 02 08 04 09 09 12 0f ff 10 05 f5 f0 ed 01 16 00 09 14 09 0a 0f ff f4 f7 fe 05 0f ff
03 ec f9 f6 15 0c f0 14 ec f4 13 03 0b ef fd e9 ec 0c ee fb 0b 06 f3 05 ed f3 0f eb 0c 14 0f f4 0b eb 10 13 fd ee 02 06 08 11 02 ef 12 f1 f6 f8 ff f6 ed 0f 00 08 14 14 ff 04 0c f8 fc 10 00 02
ef 15 00 e7 10 09 fc f5 01 f9 0d 01 05 09 05 0a 04 f8 02 0c f4 0b 12 f4 00 03 eb fb 01 02 0d f5 01 f8 ea 13 fd f5 00 fc ef ff 0f f2 e9 04 ee 07 05 ee 0a 02 f3 f7 13 11 fb ff f8 ea 0c 0d f6 f0
05 e8 10 ee f5 f7 06 f1 1a 05 f9 0a 10 e8 1b 1a ff e6 14 f6 0b fe 14 e8 0c 0f 16 f5 fd ec 05 26 08 f8 ec ed 17 f9 ee e7 f6 fe 05 25 10 11 fd ec 11 08 f0 f4 02 01 f8 ed 0a f7 f9 11 17 df 22 2b
03 f5 f9 0b fb f4 f9 f4 03 f4 04 13 16 ea 01 e9 ff ed fa e6 fa 03 f8 f8 f5 d6 f0 e3 f9 fc 09 00 f7 fe f6 ed e3 e9 f6 07 f1 f4 f2 02 f2 fe f8 07 e4 ec f5 fc 05 ea 03 ea ed d6 f9 fd 02 e4 15 13
fe f8 15 f7 fd eb 0c f7 02 15 fd fc f6 15 0e f7 ee 11 0e fd 0b f9 07 fc 14 ed fb f7 ff f2 05 f8 0b f3 14 07 15 12 16 16 fe 06 0e fb 0e 0f ea ea 11 f8 14 00 eb f6 16 00 fa f2 16 16 01 f4 ec fc
0a fa e9 ff 01 0c fc 0b eb 0c 14 03 fe 0a 06 0e ed f1 01 fd 12 eb f3 06 0b 03 13 0b 09 ff 0d 07 f7 ff 12 ee 0a 13 f0 fe 0e 13 f9 ff ec 01 10 0c 07 fd 04 12 ee 05 fb 11 fb 0b f6 fb 14 03 07 f9
13 fd 0f 10 12 ff fd eb 02 0b f0 02 06 11 02 f6 06 12 ec 11 00 fd 11 fa fc 0b f1 07 eb 04 05 f1 f7 f0 18 14 e7 0b f5 ef 15 f3 0c fe 0c 04 00 f4 fc 16 11 ef fe f9 02 fc fb f9 f9 12 09 0a 04 0e
06 ef 13 05 ff 16 1a f4 07 06 05 f1 19 08 f2 f7 f8 fd 00 fc 0f 03 eb 16 e6 f0 f5 f5 f8 11 f1 14 eb fe 14 f0 eb fd ff f7 11 0a 02 fa 09 ff f2 03 fc 04 f2 02 10 12 0b 0b ee 03 e5 0b fa 08 e8 02
f9 de 0d f7 f6 ef 0d f6 1c f0 e9 09 0c 0d f6 fa 10 ef 10 0d f4 ef f4 f9 fa e9 05 13 06 07 fb 10 fc 13 f8 f6 0d f2 fe f4 06 e7 ee 04 14 02 ea e6 0d f7 08 0e 02 ea 01 f0 08 f9 e9 e8 f9 e2 f9 12
01 0f fc ff fe f5 15 f0 00 f9 ef f4 f7 0e 0c e7 ed 01 0b f7 02 f8 00 fc 10 fd f7 00 f0 ef 05 02 fe 14 f1 ec ee e9 eb f9 12 0f fc 0a ff f1 0e 05 0a f4 0b 13 0e fa f0 0d 08 0a fb eb f5 0d 02 02
fc ed f8 0b f4 0d 09 f7 0e f0 f7 f3 fe e9 06 13 13 08 ef fa f8 01 0e 09 fa fd 11 f0 06 0f 01 13 07 f9 02 0e fd 12 f6 14 06 fc 01 f9 f5 0c e8 eb 06 f7 ff 17 e9 ed eb 11 fc 08 f3 06 ec f4 09 17
11 0e 04 ff f0 12 fc fb fd 02 0b 13 ea 00 00 f8 15 03 08 0a 11 14 0c 0d f3 fd 0e ea ec 13 f9 07 07 ef 0a 0f ee f0 fc f9 0f f2 10 11 fb 14 f0 ee 06 03 01 08 0a 12 f0 fe 01 15 0d 0d ee f4 14 05
ee 01 0e ff 01 eb 0b f7 f1 0e 0c f8 0b 01 10 f7 f7 ea fa 0b 14 0f 15 f6 04 15 f9 08 13 12 f7 15 f6 ea 10 01 0e 0f f2 00 0a 14 11 03 0e 15 04 13 ef ea ea ec f1 ea ec fa fa 08 07 12 f1 0a 08 ff
f1 0b 0e fe f0 f4 f5 03 f1 07 02 fe 08 02 04 07 11 11 02 16 06 07 01 01 fa ef fa f4 00 0a 13 f7 07 ed 0e f2 0d 13 fd 08 0a ed 0e ee eb 12 0c 0c f5 fb 0e 0b fc ee ed 14 0c fa fa fd ec ee 0e ec
0a f3 06 01 f2 fc 0e 0d 0c f7 08 fb ff ec 08 ef 0d 02 0e 07 10 11 0d fb 01 ea ed e8 ea fd f4 eb f1 0c 0e e8 09 f2 11 f9 11 fe 0a 07 ee f2 03 11 06 00 ef e6 13 0a 04 fc 12 f0 f2 f1 04 0d 0d f1
e3 02 0b f9 04 fc ec e6 ed 21 09 06 f3 03 12 01 08 03 f0 fc 02 ed 0d 19 06 08 ea ee f7 13 07 d8 f8 ee fb e8 f2 f3 0e 19 00 03 e7 00 17 f7 fa ff ec f2 18 00 f1 12 2a ee 0e 23 09 e7 f9 02 f6 e5
06 04 fb 07 05 f4 e4 fc ff 0d 0b f5 00 e9 f2 fb ea 0c f6 eb fc 00 e7 f6 f1 03 fb 04 f5 03 f4 07 01 f5 f1 e9 f4 e8 fb 02 fd f3 f0 04 fa f9 fc f9 f2 f4 f7 fc f3 fe 02 e8 f8 0e ee fa 07 0b 09 0a
12 03 fe fb 0f 05 f6 10 fe 07 06 f6 07 f5 16 0d f1 04 ed ef 07 0a f0 0b 00 0a f5 f7 09 0b f4 08 10 f6 0a 11 06 07 fc 13 fc ea f0 15 fa 12 09 fd 14 f0 11 ea ea 01 fd 0c fc fb f5 04 15 0e f8 0e
17 fc 05 ec e7 ef ee 06 07 17 f3 16 ed e9 f3 fe 0f 11 05 e9 0a f9 ec 09 f0 d5 0f 07 01 f8 07 e9 ed 01 11 ee 0b f9 ff 01 fc 0d f0 f0 01 f5 fd 09 ef fe f8 f7 08 0e 05 00 11 fe d3 0d ed 10 11 fb
0d f2 ef 16 11 13 fb fe 07 06 f5 fd f8 03 07 f3 02 13 07 0b 02 10 ee 06 ee 02 07 14 11 02 f9 13 f3 f5 ed fd f7 04 05 ea fd 14 f9 ec f7 16 ea 02 0a 02 f8 fe f2 08 f3 0a ea 13 16 0a f7 fb fc f2
f4 f2 ea f2 09 f3 eb ff fe f3 0b 09 16 f9 08 03 09 f4 0a f3 0e f6 f7 0f 0a f2 16 fa 16 00 f6 09 08 f5 16 00 ea 0f f6 15 08 05 fb fc 0d 12 10 03 f2 0c 02 03 16 ec 11 09 00 00 0c ed 0c 04 02 13
f5 0a 0a 0f 02 eb 0d ee e7 03 12 f6 e8 f4 0c f8 ed e7 f0 fd 0a f8 ec 09 f1 fb eb f7 f5 fc e4 10 0e f0 10 ed 0c 0a 0a e5 11 f4 fd 14 f6 01 f3 f4 08 f0 06 0f f5 12 0a ee ed 09 1a e6 ee f5 fd 06
ef fe 0e 00 f7 03 00 f9 ec 08 14 03 16 fa 0d 16 ed 12 01 15 01 f4 05 04 f6 13 10 0e 00 fa fe 02 01 f0 01 ff 0f f1 f2 ec 0a fb eb fd 12 f7 ec ff f5 f2 12 f1 00 fa f5 f4 0d 00 fa f4 03 fe 0d 0a
0e e9 eb 09 e9 fb f1 06 fa f3 f6 eb 02 05 06 eb 08 01 ff 09 fe ec 12 10 07 e4 03 0f fb eb ee 10 e6 fd 0a f7 04 f6 eb ea f4 f0 f0 0b 09 0b 05 ec fa 00 03 ed f7 07 08 01 ff 0c 03 ea f9 05 0b 0c
05 0d eb 19 e9 18 0b 04 08 dd 1a f3 0d fd 08 04 f1 ef e5 ee 0c fa 07 f3 f4 06 f9 f8 f4 f1 fc eb db 08 fb 0c f2 00 f0 13 11 00 ff 0e 07 f0 0f f9 f9 f9 f5 fc 18 12 f7 f5 ec 1e 00 f6 fc f1 ed f0
f8 f2 fd 0d f0 f5 f3 fd f3 f6 f3 09 ed 08 08 0e 0c ed f6 f7 f9 ec fc f5 02 f9 0a 09 f5 ef ee 11 fc fd eb 01 f0 07 fc 0e 0d 08 0a 0d fc fa ff 0c f5 f4 0a fe ea fb 02 ee eb 00 15 07 fa 0c ff fa
11 05 fc fd 08 04 0a 0e 0c f1 fb ed ff 10 eb 13 01 fc 0f 0d 0b e9 fa f3 07 fa f3 11 fc ed e9 08 f1 03 f0 f1 06 02 01 f2 f8 f8 ed fe 07 e9 f0 f4 ef 00 fa f0 f8 f5 f4 f2 04 f6 eb f8 0f fb fe 12
03 07 f9 0a 0e 11 f8 13 06 0b ff ff 00 ff f2 ef 06 03 0a ec f2 02 08 fa eb fc 08 fe 0d ff fd 06 ff e9 f5 f9 01 ea fe 0a 05 f2 f2 02 08 ec 09 0c ec fc 0a fe e9 ef 12 f0 f1 06 f7 f2 0a f9 08 f7
fd 04 03 fb 01 17 09 eb 0c 00 fa 11 15 10 fb ec 14 0c 14 08 0f f3 01 06 12 ef 13 e9 f9 11 f5 15 11 03 08 ee f5 05 10 f0 ed 0a 0c de f3 ee fa f7 00 f8 f7 f8 fc 08 13 fc eb ee fa 00 f9 ec 01 f5
06 0b 10 f8 01 08 0d 0a 00 ff 02 fc 00 f8 f4 07 f6 05 fb ef ff fa 0b 04 fb 10 f6 ff ec 13 fb 0d ec f9 f6 0b f6 f9 14 10 0b f7 fb 16 0b fb f7 06 fe 0b f7 18 f7 00 f3 07 07 18 e2 ee ff fa ed f0
f8 2b 0c 0b 02 e9 e4 12 f3 18 07 f8 fa 05 f8 e9 fe fa e7 ec f6 e7 f4 fc 03 ee ea ed 09 29 ef eb fe f0 fb 17 ed fe 19 18 23 18 0a 05 ed 0d 03 25 f0 1b 00 fc fd ec ee 03 14 24 14 f7 f7 04 e4 dc
d0 02 10 06 21 1a 05 ff de 22 0c ee f8 ed eb 06 08 f3 e6 04 ff e4 ef 41 fd 05 09 ec 0a 2c f2 bb 25 eb e5 f1 06 f5 09 13 0b 16 18 ec 25 20 e8 ee 06 0d 20 ef f3 07 30 0b e8 55 0a 0c f0 44 c7 c9
07 f7 08 13 ed 0b 0d f0 eb 01 e9 f6 14 f8 01 04 04 09 06 0d 0a 05 f6 fd 07 e6 01 12 f0 ff ec 0a fe f0 f7 ed 0d 06 03 ef 0f fe 06 ed 0b ed 05 f8 ed ff ec 0a fd 09 06 08 0d ec 04 11 0c fd 1d 15
ff f0 0c 13 fe f4 f2 fd 08 0a f5 f0 fa 0b 16 0d fa f8 0e 16 fb f0 04 16 ef ff 05 05 f7 08 fd f6 07 0f 0e 06 f8 02 03 14 f3 f9 0d 05 f4 f8 f2 0a 10 13 04 f7 fd 0b 10 f4 06 03 ea f2 0a fc 12 fd
fa 14 ff f7 0a 00 f5 f3 05 ef f0 fd 02 0b fb 02 e7 e8 02 04 eb 06 03 fc f4 f7 03 f2 08 05 ec fb f2 fc f7 f3 f6 11 ec 02 ee 0a fe fa ed f3 f3 03 f0 f9 09 eb 08 fa f6 0b 0b 03 f0 ec fb 15 03 12
f1 04 f8 0c ed ed 15 ff fc f7 0e 08 f5 13 0a f9 13 f0 02 ee 0b 02 01 02 0c 14 0d 0a 02 f3 05 01 06 10 fc 02 fe ec f1 0a fa ed f1 f4 09 fe f5 f6 f8 fb 02 ee 0d 15 16 16 fb 02 08 f9 12 03 f1 f1
ff 0e 12 ed fc f3 eb 0e ee ee ef f0 16 07 15 fa 0a fa ed f6 f2 03 06 f3 f8 08 10 16 ef 0e 03 03 fd 01 12 f5 05 02 f4 16 f5 f9 00 f0 f6 fa 0d ed eb 13 0e fc 0a 03 0e 01 ea f8 fd ec ff ee fc 00
05 ea f3 f0 04 01 f6 f3 fa 09 0b 06 00 07 f8 f2 f2 07 0b ec fe ea 07 f5 ed 0c e9 ea 14 07 fd f0 05 f9 0f fd 06 fd f6 ff e9 f0 0e 0c 0a f1 ee ff fb 0a f6 fe fe 10 ef 01 ff fe dd 0a fe f9 fa 0b
e4 0c fb 0f 15 ea f4 0f 0a fd 03 ff e8 e9 fd ed 15 07 ef 04 07 08 07 11 ec 08 14 f8 15 07 f9 eb f3 f4 0f ea 11 09 11 00 0e 17 11 12 07 11 07 ee 05 f8 04 0f f1 f5 03 ef 12 0e 19 0b f1 15 f1 08
0d ff f5 0c 0a 01 f8 ec 07 f4 0e f4 12 f7 00 08 02 f4 fb fc f3 f4 0f 0f f7 ef 0a fb f5 ee eb fb e8 f8 ee 0b 15 fc f7 fb f2 fd 0d f9 0e 0c f1 04 eb f7 ef fa 01 0b ff 02 f0 f1 e7 10 04 f7 03 f1
fa f6 09 f7 0d 11 ec ef fa 1c 07 fd 06 f5 02 fa ff 0e 15 09 f1 ef f1 e7 0e ec f7 f0 f3 fa fb 0a e9 ff 15 0d 0b fa 02 fe 01 03 ff ef f1 10 f2 0a 0a f1 08 08 0b e8 fa 11 00 f2 06 0f fc ec 12 17
e2 f1 15 07 14 03 12 ec e3 30 e5 18 ec 0d 05 07 1c 11 0c e2 06 01 1a 30 f4 da 04 f1 f4 36 fc de 4f fc 0c e6 07 f6 0b 0b 18 1d fd cf fe 15 ef f9 06 08 1f f8 f0 ec 20 05 03 18 12 07 09 1b e6 03
fd f3 ff 13 0f ec ea 11 ea f3 f3 f7 f9 ec fd f4 14 ed 11 01 0d ed ea f6 ec 0d f5 0c 03 eb f4 0e 0b 0e f1 14 00 ec f9 06 ef f4 fb 0b fc f2 fe 10 0a 07 03 f9 09 00 f7 f4 06 10 03 0a 0d ed 0d f4
f6 ee 0f 0d ff f0 00 f2 0a ed 11 e9 00 01 f1 13 f3 00 0a 12 fe 06 f4 fe ea ea ed ea f6 fe 01 16 ee ff 03 fe ed ef f0 fe f1 fb 00 08 f8 ea 0d f9 f6 0b ec ff 05 05 00 ed 00 f2 f5 08 f4 ee 12 1b
07 f7 f7 fb 04 eb 04 01 04 1b 07 14 05 fb f4 fb 0f 0f 02 f2 f4 ec 07 0e 09 f7 f5 12 f8 14 f3 06 00 fe 04 04 e8 e7 12 ed 0d 18 f5 f7 1a 1f 0a f3 08 ef 01 fd f8 10 28 ea 08 06 08 fe ef 05 ef ec
16 f5 0d 01 f8 14 15 09 04 eb 10 12 00 f4 ed f4 0a fe fa fe 00 05 fa 06 f3 f5 ed ed 03 0d f1 fc ed f8 ee 0b 0d 13 02 0b 06 f0 05 f0 06 00 ea 0b 12 f2 11 0b 03 f7 0e 08 ff 03 08 f9 08 02 06 ff
04 01 02 f1 f2 f7 f6 0a 08 0f ed 0d ea 05 f0 02 f4 03 11 14 fa f7 fa 0d ec f7 f6 01 fa 05 11 06 09 0a fb f4 14 f2 09 03 02 0e ec ed ef fe f6 ef f2 f1 05 fa fb 03 12 f8 15 f9 eb fa f1 0b 04 ff
12 ee fa 0c ef eb 0d 0f fa ed 0e f3 ec f2 ee 02 0d ff ec 11 eb f9 0e fb 15 08 03 09 01 0e f3 15 fa ec 12 f4 ef 03 12 f6 0e f9 f0 03 07 03 09 f4 0b f1 11 09 0b 0d f1 f9 14 0c 0c f1 13 0d f2 f8
ea e0 ec e6 12 ed 0d f9 f8 22 07 ef 0c 00 fa fa 08 0b fa 16 e9 0e f6 f3 fa fa f4 f2 ed 0d f7 fe 17 f5 f3 0e 03 14 06 18 0d 0b 0e f3 f1 f7 06 04 16 12 ed f5 05 02 07 f0 08 0a 13 e7 f9 0c e8 f2
ee 12 04 f2 ff 0b ff 12 0f ff 13 13 f5 ef fb f7 fa f1 ea ea 15 00 09 f3 0c f5 f4 f0 11 fa 02 07 0c 06 fc fb fb 0b 06 ee f6 eb 15 04 ff fb f0 0c 16 0b 06 15 ed 09 f5 0f 05 04 f4 0d fc 14 ea fd
eb 14 04 f8 f4 ed 06 09 15 ea 14 f2 0f f9 eb 10 e5 0d f2 f7 06 11 f2 e1 ff 22 05 07 f2 ee ef fd e9 e8 0d 0f fd ed f3 0c 08 e5 0e 33 08 e1 0b 08 eb fb e3 f7 ef ff e8 0f f8 20 02 e7 02 06 00 13
12 dd f6 03 0a ff e1 08 0a 28 e4 ec 12 ed ea 0a 0c 0e e8 07 01 11 f5 05 fa da 0d 10 e4 1a ea e5 2a fb f8 10 f3 fe e2 f7 ff 10 f0 dc 03 eb f5 0e ef 12 02 db fa ed fd f8 ed 06 0c f0 fd 12 fd fa
12 ef 04 00 f1 0c 14 03 fe fc fb ff f4 f9 16 11 fd 07 ee 11 0a f9 04 0c f0 07 14 f2 16 fe 05 f3 ff 05 12 ef 0b 06 fb 0a 15 11 f3 f8 06 08 16 01 0e fc f1 00 ff f2 f4 f4 0a f1 0a fe ff 05 10 fe
fa 16 0c 04 18 ea 01 e8 0a d8 17 fc 0c 0d 0c 07 f1 12 10 03 0a f5 f1 e8 ff 1c 0f f7 0a e0 ef 0b ef 15 f4 fa f5 ff f5 0c f1 08 0c 2a 11 f0 f1 fa f5 04 e2 12 05 16 f6 0e 16 15 f4 fd 07 0f 17 04
ee 02 f4 12 0c 00 fb f8 21 04 0e f0 04 07 17 ff f0 0d 10 f9 ea 08 07 e4 00 fa fe 0c 0d fd f0 17 f2 f3 04 0d ff 07 0c 02 f3 f4 0e 0b fa 08 16 f1 03 f2 09 ef 1b f2 17 0e fc ec 0e f9 f4 ec 15 18
06 f5 0e ec f1 f8 f4 0e fd f3 f5 13 0f 0a 0a f8 10 f8 10 0a f9 12 0b 08 fa 09 0f fe 13 ee 00 ff 08 14 ec f0 ea f7 f7 ea 0d f5 06 00 09 f4 08 f8 06 0f f6 10 ef 07 f8 ee fd 12 ff f9 fb fa fd 01
f5 12 15 13 f2 0d f0 fb f6 f6 0b e9 ed f0 0d 09 14 15 0e f4 fd fa 00 07 04 08 02 0d 0d 12 05 0c f4 0e f6 10 05 0d eb fe ef 13 f9 f6 14 11 13 11 00 fc 12 fb 00 0f 00 13 eb ef 09 ee ee 0a 04 f4
06 fa 04 0f 08 02 11 e8 fe 0a 19 03 e0 0c ea 06 0a f9 f8 f8 fc 13 06 f9 e7 13 f7 0b f6 16 f9 f2 0a e3 03 fc e5 02 04 f3 0e 03 f9 f0 1b f9 f5 0c fa 03 1d e6 fa 16 fc fc fd 27 02 fc ec 0e 00 d8
f7 ff 10 f5 f6 f9 03 06 0b ec ee f4 fc 07 ec 00 04 fa f4 0a f2 16 ee f0 0d 0d 0d fe fc 04 02 07 f3 00 f9 0c f3 fe 14 12 0e 01 11 02 13 11 10 10 fc f3 10 ec 06 fa eb 05 09 0c fd 0d 09 ee 15 14
0a 0c f1 ff ed 11 fa 0a 11 08 f9 12 12 f1 ed ec f0 fe 00 ff ef ed fe f5 01 04 ea fb f5 0e ec fd f9 ec eb 09 0c fd 0f 07 03 fb 0b 07 ee 04 0e f3 13 eb 13 00 e9 ff f7 eb e9 f0 02 f3 01 fe 03 f5
00 04 ff 0a 0a 0b ec fb f7 0f 05 02 fe ea fe 05 00 f0 13 f7 09 07 0b fc 12 fd 12 02 ee f2 fe f1 01 f3 06 eb 06 f4 f6 ff fc 11 0c fc fe ea 0e 09 0f 13 08 ec 05 10 f7 f8 07 f3 00 14 ea 0e 0d 06
0b fb 09 0a ef ee ea 0f 0c 13 fd 04 f4 09 0f f3 f8 ff f6 f8 fa f6 00 ed f8 fd f9 07 11 00 fb f4 18 0d ec 03 f0 ea fe f9 fc 10 13 10 0b f9 fe fa f2 13 13 ef 01 07 f1 12 f7 ed ff 0e f4 05 fa f0
e9 e4 0a ea 0a 0b ed f0 19 2a e7 10 f5 07 eb 02 13 ee 09 f3 ec 05 07 12 0c e4 13 f6 ec 1d 05 00 2a f8 0c ea ff 02 e4 f1 f3 ec eb d2 17 12 ef 05 ed 06 11 ee f9 e0 17 f7 ff 09 fe ec 09 19 f4 e7
f5 f6 f5 10 f5 f4 0e ea 03 e8 03 eb 10 e6 f0 04 ee 03 0b eb 0c f6 03 02 0c d5 ea f3 ef f9 10 11 f7 0a 14 fc 05 f3 08 02 0e 08 11 0c 11 ed f6 fb 01 fa f0 19 f9 01 fd f1 09 e3 0b 0b 04 e5 05 27
00 f0 02 0c f4 10 fd 0e 00 f0 fb f2 04 f0 f2 0a ef f2 f1 07 00 ff f1 05 0a f8 e8 0c 00 ff 03 f1 11 fd fe 00 ea ee f4 fa 05 fe fe 03 ee 00 fb f9 e8 f8 00 f1 01 0e 00 0c fb f9 e3 f6 f0 f9 02 06
ed f7 08 f9 f2 f6 0e 14 27 fc 0d e8 19 06 15 1f 04 e3 0b fd 06 e5 ea ef 00 ee f8 f3 f5 e6 ec 17 f0 fa 14 ff 31 1a 1a f1 03 04 0e 11 ed f6 05 f6 ea f7 e9 f1 13 f0 f5 f8 e8 de f6 f3 f0 e6 0f 24
fd fa 07 fe fd f8 f4 08 13 fe 05 14 0c fa 04 0b eb 04 ef fc 00 f4 f9 13 09 0a 14 ef 05 fd 0f 10 fc fb f9 fe 13 0e 05 08 0e 06 fa f7 0a fe 0f 16 10 11 05 06 fc ea fa f4 fa 11 f7 f6 f4 fd 0c f7
03 f1 f8 01 f8 01 f2 eb 04 f0 fc ef fc fe f1 0b 14 f1 f6 eb 10 f8 f3 10 0f ff f6 e9 f4 11 ef f1 fe f5 ff f0 07 10 f5 f7 ea fa f1 08 f4 fb f2 e8 11 ec 0d fb f1 f8 ff f9 f9 f9 ff 03 fc f6 fe 0a
0e fb 11 ed 15 0f d0 01 fc f3 e9 08 eb 0b 17 13 00 fb 10 e9 0d 03 0f 09 0e ef f6 1a 00 15 f9 ed 1a 24 ee 0f 05 f3 08 0e 15 f4 fb 00 32 1c e8 fc 19 f7 14 f6 0f f9 1a 0a fc f8 fb 00 e8 fc f7 f1
02 11 ea 00 fe ec 0c 05 e9 f1 11 00 0b f9 02 fa f3 fe ea fe f3 f2 f9 10 fc e7 06 ff f3 19 0b 08 19 e9 05 ea ef 04 06 fe 15 04 0e ea 0d f2 f6 08 ea ef fe fd fa 09 07 f0 ff fe fc f5 f6 f3 0a 11
f8 02 0e 02 01 ef f4 f4 ef fe 0f 14 00 13 05 f3 19 eb f2 14 ee 15 f1 0c 0d eb 12 14 16 13 ec 11 f0 f8 f2 f8 0d ea f1 07 f9 04 11 ec fb 00 0c 02 03 f7 01 f6 13 f4 21 0a 03 eb f7 f7 10 09 fd ef
0a f6 f4 0c 11 f4 f7 f2 f6 f3 07 0f f3 fb f7 fc 0f f8 fc ed 11 f5 02 fe 10 14 02 0f f9 fc 00 00 f0 10 fc eb 01 f6 01 0d 0f 12 fe f1 16 f6 0e 0c 03 03 03 f4 0b f2 09 0d fe 10 00 13 f7 fc f8 ee
06 f2 12 16 f6 ec 09 0f 00 08 ff 11 f2 ed 04 f2 04 11 f6 f2 fc f1 f4 13 fc 10 fa 0d 0f 09 f3 01 fa fc f7 15 0a fa 00 0b 06 f0 13 00 f5 f0 00 f7 f2 eb ff 07 ea f9 f7 f5 0e 0c f1 f7 09 0c 0c fe
ce 14 00 eb fd ff e9 eb 03 06 f7 ec ef fd 05 f3 11 10 ef ff fe ee fe 15 f2 13 09 f6 f3 08 0b ea 16 e5 f8 0a ea f5 fe 10 00 fc 0c eb f8 03 e6 f7 0b fb fb f4 0d 02 15 fd ef 23 06 fc e5 24 d3 cb
f4 f6 ee fe ea ec fb 11 04 f8 fa 00 f3 fc 00 e7 f1 ed 0a fe ea ef fb 0e 01 02 f3 f4 0b 0a ea ed 09 f2 fe 0a e9 fb 06 e7 f6 ea 10 f9 f8 0f f3 08 0d 01 ee 0e 11 0b f7 ef 0c f3 ee ef ef 09 12 00
f0 f2 0c fa ea f4 01 11 ee f3 ed 06 08 03 ee fb ec 09 0a 0d 09 09 fb ec fa eb ec f3 f5 12 f1 ed fc f0 f6 05 0f 09 ef 01 0e 07 0e 0e 16 ff f4 f8 f4 13 f7 10 11 f0 02 16 f9 0d ef ff 12 ed 0f 00
15 f4 16 fc f6 fa f4 fc 12 fb f7 fd eb 11 fc 00 0a fc 0d f6 09 13 f6 ed 15 15 0d 15 f2 02 07 0f ee f8 f0 06 10 12 00 f3 ed fb 10 05 f6 f1 ff 08 05 10 f2 ec 13 ed 03 15 05 0e fd ea 02 f2 16 15
f9 0f f8 00 ea f8 19 f6 07 f9 f3 fd fe 0f 0b e9 f6 ee 02 ff 0c f6 01 ef fe fd f0 07 09 f5 0c 07 04 f4 ee f6 ec 05 00 f2 0e 0c 05 f8 f3 eb 06 e9 e9 14 f4 10 08 ef fb 02 f8 13 0e f7 07 04 fc f1
03 13 09 f2 fc e9 02 0b 0c f2 f2 ed 0a 11 e8 0f fa 0a f7 08 f1 11 ff 00 f4 ea f0 11 00 0f f8 f4 f4 f9 0f 05 13 03 f6 fe 0d 0e 07 f1 0f 09 f0 f3 fa 0a 14 f2 f3 11 f8 02 08 ee e5 f1 0f ee 0a f2
08 06 09 07 f1 04 ef 11 fd 13 13 fa fb f2 0d ea 08 11 0c 0d eb 03 11 fb f0 0a 0b 09 00 f7 03 f9 0e 0d 0b 06 eb f6 fa ea 02 ef ec 07 08 ef 05 f8 fb fb f9 f0 08 09 0a fa fb 08 15 e9 fc 0c 04 f9
00 02 f6 ff 12 f3 02 06 0f fc 05 ef f9 0f e9 ed f2 08 07 fc fb 03 fe 1d 0d 09 12 04 0f 1c 05 f7 17 14 07 f2 02 ee e9 fd ff f5 f8 e4 03 ff 0e 04 f0 08 17 f1 f9 e7 10 ec 04 17 10 02 05 1a ed 02
f6 eb fb f7 0e eb 0e 12 ea 00 fe 13 0e ef f6 08 00 11 13 f7 f5 f2 fb e9 06 f6 fa ed 06 f6 10 fb fa 08 00 f1 0f f8 e7 f3 0a 0a ed f3 04 ff 05 04 0c eb 13 fa eb fb 09 e7 0e ed fe fa 06 fe 03 f6
f5 f4 f5 10 fb 16 ff f5 0b f7 ff fb eb 0d f3 f9 11 fc 01 12 13 12 11 f8 fa ef 03 fc 10 13 08 08 f4 ee 11 16 ec 06 fa 0b f7 02 f9 0b ed ff 15 f9 09 fe 09 12 f3 f3 0c f1 fe 03 11 f5 05 f1 0c 13
15 fc f8 f1 03 11 0f 04 04 18 e7 ee f6 f5 f4 eb f9 06 0a e6 f4 05 fa ff 01 d4 06 ec f0 07 f1 18 0e 0e fd 08 ec ec f2 13 f3 05 e7 fa 01 f3 07 07 f2 14 10 fe fe e6 10 00 0e de 12 02 f0 ec 0f 1d
0b 04 fc 06 f8 0c ea f6 f2 f0 f7 0d f6 eb ea 04 10 00 f1 09 ef f5 fe 01 07 09 fc 01 12 f1 02 08 01 ee 0e 06 f2 f7 f1 f2 f0 ff 05 fa fc f0 f1 f2 f5 fe f6 09 12 f3 04 ef 0f 0f ed fc 12 13 04 0d
fa 03 ef f8 ff 02 02 f8 09 ed ee 10 13 fa 05 01 12 fb f8 f6 10 f3 f5 ec f8 02 12 f1 11 08 f6 ff f4 12 ec ef 0d ff fa 0c f9 03 13 f7 14 13 ff 10 f7 ef f1 f9 0a ee ea fd 0c 0c 0b 07 f4 ec 03 f5
04 0e 10 01 07 05 e6 ea f6 0c f4 ff 0d 03 ec ea 03 ec fe ff f7 08 fb 05 fb 0c 03 08 f6 14 0c fb f7 03 eb 11 fa 01 f5 00 0e f3 f3 0d f6 fd ed 08 fe 0a fa 04 e8 ef 0f 04 02 f3 fa fc f9 05 fb f9
fc f9 fc f8 09 f8 f9 10 f5 05 14 13 fb fb 02 e8 08 fe f0 04 03 e8 ea 00 fa fb f7 f6 ee 08 06 f1 f4 fe 03 f9 fc 00 0a 03 eb 06 04 06 09 09 fc ec f6 f8 09 0b 11 08 07 08 00 0d 0f e9 10 f1 f5 00
e8 f9 0d 02 16 f5 00 ff ee 0b 06 ea 0e 05 f3 08 10 fd ef 0f 10 ea 0c 0d 10 01 fb eb 06 10 11 fc 1d 01 06 0e f9 fb ec f0 f7 1d fa ec 03 08 fa f8 01 fa 06 f8 16 0f 0d ee 0a 17 15 fb fe 16 ee ef
0a fa f6 fe 02 0c f6 e9 ed f2 ed f5 02 fc f1 ff f4 09 0c f5 fa 0e fa 03 ee 08 f4 f6 02 f7 09 17 f9 ee 03 0b 08 f0 ed ee f8 01 f0 12 f6 05 ee 08 01 00 f4 f1 f7 ec 00 07 fd 0d eb ee f3 f0 f4 fb
e4 13 dd 06 ee f7 e7 04 13 ec fe fa f3 f6 f4 05 f0 f5 f4 ec 0b fc 06 f8 ec fd 0a f5 f2 09 f5 12 e3 ff f3 01 11 04 0c 0d 02 ec f2 35 fe ff 04 10 ed 04 ec 02 ea ff e0 0b ee fe 06 07 f8 02 04 02
08 fa fc 01 f3 0c 11 eb ff fc 16 f4 07 12 00 00 15 ee f0 0e ef fd 08 fe fe eb 16 eb 0f 01 fd 10 f0 11 f8 12 06 12 12 14 05 fb f4 ed 11 05 fc eb 05 ec 15 ed fd ff 05 08 01 ed ec f8 0a f7 f1 ff
0f f2 eb f0 ef f8 ed f9 fc 09 ff fa f8 ef 04 0e fe f5 05 f3 00 f2 ed 0a f3 fd 11 ee 14 05 13 0f ff 0e 0f fc 0c f1 03 ea 0f 03 05 01 04 00 07 f2 12 0a f2 01 07 fa 01 0b 11 04 fe f5 07 0b 00 0b
04 08 f1 02 f1 00 f4 02 ef 0c fb ea 02 fa f7 12 0d f0 f7 eb 0e ff fa fc f0 03 f1 f8 ec fe 06 12 0e f1 f5 05 fe 08 f0 03 e9 01 ed 05 fc 0e 01 0b 11 00 fc f3 12 f3 fc f7 07 05 0a 04 ed f9 12 f8
03 0b 02 0f ef fd 07 ff fb ed f1 f0 ed 0c 00 eb ec 13 e9 eb fb 0e ef f8 fd fa 09 f7 08 f9 12 08 ee 0c 0d 10 e8 f3 f8 ed fe ed fa f7 f2 00 12 0b f0 ec 01 f6 f6 11 f1 0c fe 00 ff fe e9 14 f1 f0
f0 18 f2 02 07 f4 00 ea ff f5 f6 03 f6 06 ee fa 0a f5 e8 e8 f6 05 f3 0b 06 20 f0 fc ff ec 0a fc fc 0b ea fd ee 13 f1 0b 0c 00 fe 10 0e fd 0d 00 eb 02 ff 12 ec 03 fd ec f3 04 fe 0f 07 f7 eb 08
06 f9 0b f0 00 10 ed e8 02 ec fd f8 f2 00 fa fc f0 06 f8 fb fe 0d 11 ea fb 0a 04 f3 eb f0 ed 05 13 f4 f7 e7 fb 0e 07 f3 ea 02 14 06 fe 04 f1 e8 fc f5 0a ff 0e 0b fe 0e fd 0d 1d 05 f9 13 ef f8
f7 08 0a ed ee 00 03 ec 14 fe ee f4 0d ec 14 12 0d f7 ff f4 f4 0c ea f4 09 15 12 09 05 16 0f 01 0d fc 11 ed f8 11 01 ed eb 15 eb ea f9 fd eb ec ef 0e f9 fe f8 ea ec 09 ef 13 f7 09 ed 11 f9 f8
09 0c f3 f7 06 ff f2 0c 0c 16 f7 15 ff 02 f0 0b 14 01 ec 11 fe fd 16 ea 08 f3 fa 08 08 10 05 03 ed 12 f4 16 09 14 ef 10 ff 12 f8 05 15 01 14 11 01 f9 ea 16 f3 0f ea 06 f5 f9 0b 01 ee eb f1 01
fb 07 06 12 0b 16 f1 01 15 f2 07 15 ff f7 12 f8 06 f7 fe f3 fb 09 09 f6 fd 0b f5 f2 fc fb ea ef ee 0f 13 0d 01 11 fc 06 04 00 f1 ed fc 12 ff 0b 0f ea 11 fb 01 eb f6 0e f1 15 0b 0d 06 10 fa fe
09 0e 0e 1b 13 0c 01 fd dc 1f 06 03 ed fd 11 f2 24 07 f6 04 fc fc 26 08 06 e1 e8 fc 03 14 fc dc 35 05 fe 09 f1 ee 05 0f 0c 17 f1 f8 18 ed f6 f8 ee f5 1d e2 f9 f7 0e e6 f7 0a 0c 0b 10 f6 fd dc
