f4ec 047c fcd3 fa24 0190 0006 f906 0a23 f9d6 0725 09e0 fb59 ef39 110f 0081 f72c 008f fef7 0e28 0638 0c6c f8c3 1645 ff9f 1923 fcdc 033a fa04 ff9d 10c0 15b5 01d3 f485 f8dc 00e3 0efb 0666 01e6 0113 fbc7 02b8 05dc 0b19 f731 fbf5 0850 f69e 0c05 fef6 058d fc6d f760 f765 f459 fdc0 f934 f954 f8ca fd63 0993 1191 14b7 03f1 14d8 0db8 f6a3 00a1 122f fa39 0964 fbfe 081c 1779 0e75 11e3 f591 1601 1911 05ed 0356 18be fa76 f29e f679 16c8 0a6d fda0 08b8 f258 0c45 f626 f42e 0978 fc1a 00e8 f9f5 f82e fa44 0fba ff5e 18fe f8c7 0210 0ab6 fad7 f79e f0f2 f7c9 fb3c 0aec f683 1660 f6fa 0db8 ff98 0f90 11b8 f714 fcb5 0f2c 0797 04b8 12aa 138d f51f fb11 f11f 0f5a
f4ea 1834 1037 0733 facc 0079 00b4 f98a f240 0bde ef5c fb10 ed40 0198 04a1 0105 16a2 070d 063e 08b9 fd93 0430 08a9 f72b f638 fd9f 1217 e7f8 e30a 13a8 088c e8e2 f2b8 e4ae fd63 ee4d 0110 0b36 fbc6 f7dd fda3 0691 f576 f884 f718 195b 01bf f4fd 051d f09c fae4 e687 deb7 ec7b 0a82 0a38 0837 f1d5 0274 f6f5 0368 f771 067b f41e fd25 0689 126f f095 01f0 10e3 0848 e932 e962 0f1f edbb 059b 002d f413 0ca5 fa69 eea4 0d4c e4dd 0bbc f567 0f9c f3f6 1263 0db6 2170 ef7a 03bb eb78 edc1 ea59 f665 f5c7 fc2c f7e7 eb35 ecbe fff0 eaa6 f8dd f308 eb40 0e38 00d4 f78a eeb1 ea5e eca2 f67c f4f1 0170 0938 03b5 e830 f14f ea0a f4c1 0ec2 feb0 11a9 0779 0efa e843 f4fb
01b9 2f98 e696 f774 1a46 0c6f e94e 1076 1043 0892 fbd5 f593 e6ff 042b 1d9c f24f ee31 f3e5 fb4c fbfa ef1e de9a 0683 0bef 18cd f869 ef9a f376 026d 0b20 fea2 f374 e27b fe05 fc79 f6b8 ea3b 0c20 1680 fc9b 06b4 f3cb ff60 097f 01ee f533 eaf8 f552 16de 09ba 00ee 02d0 f4f4 f06e e518 dbf9 e76d 1ae4 05f2 dd07 0d3d 08de eeec f2ac 1866 0eff ed70 056b ecfc 1246 edaf fa54 0f8a 07e9 f8b5 0988 0f11 0adb e3b1 00d3 e8b4 de0a f79d e4fe eacb 15c4 0079 feb7 fc62 0cc8 0bfe f4dc 0f3c 0483 23fd efee fffe 0530 f044 0cbf 06b1 eeae f6bd 01ea e7a0 f34b 1829 0458 ead4 f462 f128 fcad efbc 007c 0888 f3bd e7b5 1c37 ea57 011b e94a eff4 0311 eaa5 ea1c f294 ddc5 fa07
00d6 dc22 fcb2 e64a 256e f272 de39 03ad e3dc fda6 f4fe f692 fe7f e7ca e61f fb4f 05f0 1150 13b4 f534 d40e ed4b 120d f98e f5d7 dbba e73c ffee f6ee e7eb fa18 09bb 0aae e727 28f0 ee3f 0c25 26c3 2638 0b62 f403 18cd 10f6 0c10 00d5 e483 f4cc f5b8 13b9 1790 0466 e94b db9c 032d f5ed 17f3 ec3b fbc0 f0f6 16f4 ee06 0f07 0ae8 1572 f821 e58a 14b1 11b1 00f3 fdbc ed99 00f9 ec0e fc45 e7cc f31b f30a f334 fa09 001c 0724 0c12 d817 f640 10db 5bc1 ee1a 0dad 02fc fde1 09ac 01be fe11 089a f092 0a30 13a9 f277 0437 fc56 0fce fe16 f92e fd2e 05a4 0c86 01f2 ec10 06b0 101c 02cb e8a0 ef77 fe8d df0d 1573 f891 fd4c 3e54 1746 058a f917 e7b9 f978 0339 fa02 e09f 041f
f093 2165 1b2d ef67 fe73 0b06 ede4 01e1 d02d eb7e 15f0 16be 15db f5c5 1788 15fc 020d 1cb9 e999 fefb e4d3 06e6 ed33 2d34 1406 eded daaf eced 16a3 f19e 0406 0817 f250 ff2f f95e 106a efc7 0c19 026f 2367 fa02 ef62 f027 f9f0 0b51 1cf3 1802 ee24 2204 1476 e9a1 fcdb f664 167e 16f1 0627 032a 156f 094f 0c8e fc88 10c3 fc15 0e80 188d ef20 1bbf 0500 0b48 1541 1c20 17d2 125b 111e f2f7 fa43 04c1 f626 ef6e 10d8 f34b 2a4a df63 f39d ea66 1a20 e49c 1351 155a 3f78 0aba 0a9c eadc e254 e834 d958 0c00 0026 142a 1316 fd57 e2f0 0181 0566 05d2 f6d5 ec1d 0bd7 f50e f2ae fac7 04b7 e488 0cca e6db 07ba e856 1eb9 1bda f0d8 14ef 1ae3 03cb 1938 1ea8 1584 0d9f 0642
10b3 1f0e ec76 fbc1 f7de f3be f06c f000 e33e fd9c fba2 fc5f fe92 f4e2 21ed edac f5e8 0355 0c2e eacf eae8 fcf0 fe0e 29a2 e6d9 0c07 edde 0eba f94c f25f 066e 151b 0a11 f720 ed90 eb52 16ac 0d1a fbe5 0306 f55a 062b 0276 f93c 00c7 15dc fdf2 02e0 1714 f108 0ac2 e937 052d fda1 f5e2 f1d7 f315 f743 f2e0 f7f2 1667 fb8b 0c60 05a3 fb23 08df ea07 ee4b e786 14ad e5bc f60d f753 f850 0a0c 0ab9 fe83 e8e3 05c7 1501 e76f f91e 0db4 e8df efa3 f474 0a99 f39c 105f 1287 0f8c 0065 193b d675 1100 f4e0 e54e fda9 07bf f1e7 fef7 e732 ec78 e936 0e8b 0b9e e788 05d5 fff5 0b4b 0cce ef44 0f29 0b65 0564 016f 1f6d 1226 f54d 01b0 189c efd3 147b eabb 1451 04bf ecd1 0d47
0576 e7b2 0ca4 21d5 d56c 15ff 10b0 ee3e 095b 0a57 ef28 0586 0b39 f32a 202c fab9 d81d f66e 0184 122e 180b 0525 16ba 1d70 f3f5 f8b8 ef49 fbc4 0149 0fbd eea1 f365 f68d e390 0928 048e ee5b e5b3 d101 132b fdd1 f339 fca4 e495 e9f3 1be1 ff73 f9eb bd8e fc2a 03fd ff9f fc0f 012e e54a 13d2 fd06 1008 16fb 402d f0b1 eea2 108a efd9 ec9e f1e3 0b0d 15ac ebde 05a7 e205 0cab 1404 f6d5 0edd db49 052c f58e f9f9 f1b1 06a6 eae2 231e f21a f252 a6a1 1a45 0d55 0dc8 d201 e70b 0328 0eab f2f5 03e0 f86e 0173 271c eeb4 ee25 f05f f4ea 100e fa21 f892 ec6e 1291 f1a1 191e 1189 fd14 1739 274c f45d 2019 12fe 0bd3 1bce c1fe 07c3 1725 07a4 efce fefb f8f5 db58 ea5c 0bbc
027b 0939 12d7 f9a7 f6b3 ef05 f0a2 f541 1863 e80d 10f6 0601 eea5 0f04 0047 0081 1cab daea f5bd f084 e7ac fae3 112d ea28 1151 1650 0ebf 1497 faba 11e6 051e feeb e6db ebec d4d6 09df 02f2 ec0b ef96 f0a1 08db ffbe 1521 fca7 e2e4 fd9a 0511 086b 37d6 f75f f5d5 faa6 f653 fa8d fd12 03d1 f78e f734 0e0e e491 02d7 0507 0f8e 12cc 1919 fe50 ef76 141e 0d01 04d5 1498 eaf6 eded ef18 1458 eaad fee2 0dcd 1189 ea29 f7e1 01f0 2424 e78a eb34 d94f 0e04 115d e493 2457 1879 ea82 0b7e 06af f5c3 10dd ff02 07e7 0d8b 10a7 0fb1 0bf1 fca1 15d4 eb9c 0c97 18d6 0998 1c0e fa9f 196f f236 103c 0a10 0246 e7e7 fb85 f4e8 ce79 0ad6 f34f 110f ff2e f4b9 e748 0513 1b51 1768
f836 2821 13c5 2029 d2db 13e2 1e36 f945 1abe 1133 eebe 1724 10df 1693 16ab 09e6 d0a0 36f3 fb92 111a 0707 1b6c 1068 14fc f62c fdc9 011d 0197 100b e88f 11ec 06a0 e6ef f290 080b 0037 021e 150e eb62 4d2c 00bf 0e48 faeb 1177 d9e5 03f0 fdd8 f3c6 11da 11b4 feec eccc 17df efc2 e5a0 3d10 0bb9 1842 1654 2bc2 f1fb 034e f32c f6a3 0864 091e 1a07 ec12 00bb e9f9 f704 11c3 f1e5 171f ff0d 0c3c 0d00 fa73 0e11 f42b f58d f6c9 faa2 f563 1ae4 db83 e41d fb9f 0e29 199b 0b43 0973 f77e 0e4a da5d faac 113e 0c5d 0334 0d9c 0f84 f8b4 fe68 f0f9 1ac0 172a f712 ed46 1ef1 011d 0c37 f9a6 1a2e 0ba9 e7a7 f3e3 f466 26a0 e10f 0235 f8cf eb77 02da 1310 f627 f7f3 d629 f231
0e88 f63f d6f8 1327 0032 fd70 fea6 eb31 0635 1080 06e8 03d1 102c 03bf e465 e946 2c7a d478 f5fa f0cd f97e c72d 0444 e0f0 ed88 0ab8 0a98 1481 f893 ed19 06fd e8e9 145d fc86 f79b 100d f67e dedc 30ca ac55 05ad 1276 0fb3 f666 0800 063c 0ec8 f04f 07cb 0122 f08d 09c8 ed4b e8b3 1f89 f66e fb0a e4b2 0876 0c39 f2e7 07dd f192 ff2e f942 0f69 10e9 10fa e96f ea59 0beb 0231 0fa5 03a4 0101 0811 fd7f ec98 00fc 09b0 127f f235 f628 f5c4 f52f 107a 183b 0304 ec5a e09c f37a 1151 fa65 1953 f7f1 07cc ee5e e236 01ab 0932 07b5 fd01 fdba 0b5a 0a61 f017 172c 111a eabf 13f9 fe5b ee47 0a7f ea2c 126c 142d f85b ee4e 0191 0b72 f0a7 0cee 0dfc f3fe 0fe1 0668 28e6 11b9
0405 260a eeea fb20 2fd9 f3f5 1c9d 04c7 ff46 f3d8 ed64 0dc9 0dc1 f7a4 f7a0 1795 1982 f6f0 fb3c fb8f 1cd7 de1c 04c4 0c3a fb87 1616 0c7c 004d 19a6 191e ed94 fbce ec38 1526 00b9 ff49 0e71 f1df 3029 d676 185e f85a f43f e62f 1d02 2b32 0af7 0ef2 1bf5 0838 ff3c 0fa7 023f 02b4 1996 e176 128f fe2b 1b4f daa2 1617 00ce 17e5 ed86 f2d3 0039 f0a2 ff6e f990 ec88 0402 f8d6 f84d ead6 005a f91a 14e7 edf4 fe10 f25c 007a dd9e fcca f86e f65f 125e 1ada 117e f5ee e52e ff78 1137 134e 1a6a 1970 0689 eada e28e eaac fa66 ee30 1a39 f171 12b9 0d83 195e 01cd 11cb fb28 e489 00e5 f502 0a3c 09d0 1376 f05b 0a55 f5eb 17c3 fa97 11c0 107f f276 0683 fae4 2696 20cc f4bd
feac e00d fad9 fc00 067f 1192 f473 f6ac 1980 1229 096d fade 0059 11ff 2039 ee19 f644 f898 eef4 eab9 0878 eede 0ff0 fe6f f9d1 ffa6 06ff 11c7 1902 1364 e999 f5bc e68b f3f8 0107 e9c0 ec81 e0f9 f149 e327 fd1a fb61 00b5 1d0d f4af fcf6 ec45 f632 db7f fb1f 0cb9 0968 fbcc 0f49 10a1 c76c e966 10b9 fdf6 16e3 ecb4 f072 e2a8 f549 f232 1c0a e027 11cf 0da0 eef0 f598 f15b f013 0b4b 048e e74f 0bef 043d fdcd 1187 0da9 f34f 1daf 0572 0727 efcf 2047 f030 e863 e38d ef75 fe5a 1496 1fcf 223c 0a34 ea7f 1bc3 0173 06fc ef74 0ec6 f386 0cb8 f33e f777 fd0f f321 fa0c 1a1e 0c8d 06f3 1cb8 fb80 1b4b e8e4 0fdb e54a a573 09c9 ec3c f281 f3b7 f789 fdf2 e217 06b7 0892
1c3f f387 d39f edfa 22c1 f40d ff5b f775 2dc9 f131 1145 09fc f5a3 07b8 1eb8 ef3b fcb7 0bc7 0b9a ed0f f261 e2a0 0c8e 317e eeae 015f fa48 09c2 f124 0549 e94e fe77 0ba5 047b 0978 0b04 08d2 cad4 ea4f e1e0 e949 fd62 1745 f54d fa3f 0cf1 f49f 06a8 ee26 feed 1c4c 0ab7 04ce 2736 ff82 db5e ef60 21de 0cdd e55c f94c 15cc f902 1255 fa3b 101b f1e3 f2ab 03de 138d f109 f113 0790 08e7 0b11 edc4 f9c4 13a0 e94e 0e13 112b cb15 0957 1c1b ef3c de1a 2c3f fc45 025e f5ec 0eef 0efd 03f9 17b9 2f6b 0aa7 fbc6 162d 076f 0846 ec63 0167 e724 09d7 fd70 f089 16e6 f2da 023b fe3a 0450 f42b 140c 0f8b 15d0 0273 f336 12b2 d914 0631 190a ffd8 123c 06f0 f537 030e f829 f4d9
e04d e209 f1bb 0b8c 0b46 13b7 05c7 0943 eb40 1350 0bde 0454 e149 f537 025e 015d 020c 0d55 ff2a 0241 14a5 ed7f 0062 04b5 0579 09e2 ff0d 0e8b 0f0c f7e9 f749 faac f182 0a6d fb75 040c fd05 f068 eb1e efe2 f256 1737 07ba f4a8 0ea3 103f 0538 0f93 def4 fd47 0e80 06ce 0bb9 eae2 04c4 f2f6 fd03 058d 11f7 1450 edd5 f12c ed1f fd66 0316 ef4b 04a3 ef62 f45f ee24 fada 11ac 0601 0a71 f7d8 e25e 0fc7 1587 0b9c f2e1 f5d9 ecb5 f981 ea29 10d3 0353 1582 1532 e887 f8c8 f0a6 f6a5 e966 0259 141d fde5 f7c4 f28b ec2b f3fc fd36 f290 0daf 1129 f80c f0ee ea55 eccf 0449 1473 007b e7b6 0ec6 e913 0a41 ff49 12be f4a9 f463 fcd8 f583 1181 f597 faeb f106 eda2 f03a e7bc
0aac fdf4 103a fa65 ea0c 06d4 faea 0565 1503 0e05 1097 0970 11ee 0282 053d f8cb fadd 091c ef66 01cb 0f41 fa09 11cd 0bf4 01e8 e89d 154b ebb5 067e ee4b e79e f31f 0bd8 f50a f838 11f0 0227 0e9b 03f5 1c84 052d fd66 f30b 0474 fdcc ed9c e572 e6c4 15c2 0209 fb98 f302 0584 f9be ea4f f669 04f9 fe5a f67a 028c ee99 f577 01a9 05dc fc65 e9ef fc0f 0e0c f88f 0556 02a5 f921 fa93 12e5 f55d efed fec8 ed01 0ba7 fe0a f12c 056d ec87 038a f3b1 02c4 ee04 f733 0306 04ca 04b6 f7d6 f491 f634 f37e f752 feba 10da 0cb6 e5bb 18fe 05b4 08f1 e984 035a 0cbb e532 ffe8 fa69 f2ca fe80 f188 ec21 1226 01ca 080a f160 0996 f3d2 0473 fef9 05dc f1ed 00b4 0987 054f dfa1 11c1
eba9 10c1 f650 f301 2414 e9ad 0498 ef15 0ec2 f535 12ca ead3 ee0a 06b4 e8cc ffc5 0bb8 ee36 0740 f95c fc93 0476 f355 eeaf f794 f45d 009e 0b5e ef25 f177 158d f251 f38e 122c 0f07 0c33 efdc 135e 40ed 0779 ed92 f4f4 ef81 04ba f0c6 1015 fb3e 0349 109c fc2a da0d ff7f deec dfe7 03a4 fd4b e7a1 e1ef fa95 0335 05f1 144b 15a6 0663 0339 f2bb ed3f ff70 070e 079c 0730 0f1e 1220 1336 ef02 0b47 f0b7 f4d9 1156 0aa7 fc39 0521 e858 e5f8 16d3 0936 e3a7 00e5 f548 0bed 0b2a f1a9 12d6 fea4 f2b7 f190 0edf ee00 1409 0ac8 0100 fd32 05fb fa61 eaf1 16f3 e9a1 1248 f3ec 081b f31a 0eca e510 ea31 ebe4 0744 f877 f163 29f1 ff5c f003 ea94 e709 17c9 f9d6 0aa7 0579 0974
0bd9 fb09 ed3b e2db 275f 0f8b e9d0 0f0c ffc7 1d2c ec33 e624 045f 06cf ef3d 063e f72a e8ed e724 f719 04d3 e33d 016f 01ce fc07 0c34 eb76 e9da eab9 e974 1020 ee8f f27a eb09 13fd 1061 09fe 0d6f 19ac c5d1 14a2 1c04 feb9 e530 1115 fde1 e517 f3b9 ee8f 16e1 f011 e22b f795 11b0 ec97 fd7a e693 d463 e003 173f 0006 10fc 0b7e ed86 1807 e7c4 e385 100a e4eb f2a4 11b6 13e4 f507 f065 e9ea 0a5c 0122 f816 04b2 13ff 0d9e 0ab8 fffe e682 0067 10ba ef0f 0ef1 f10e eb02 1017 f7ac faa7 eb75 ec60 0109 09e3 ebf8 e7e9 eb5c ffcd 098d fe25 f41a 1370 14e1 dd5e 00c4 fc84 0699 006a f503 dd33 0927 f3d6 1751 020d d8c3 3555 15ea 0a73 f932 fc9c 12ab 07b5 f3aa fce9 fbd5
f39f 082f 0a1b efc0 e39a 0944 fb51 f055 1717 f3f8 0df1 0655 f926 06fe fffb feca 0316 e8c2 0ca9 e8ac 0863 06a4 e751 f270 17be f9bc 08b3 e5f6 f62a 1413 f654 eebb fa2f e627 0b51 f1fc ef85 0b27 fb9d f408 ec08 e6a0 1681 142c f2e0 ec10 e8d8 ecf8 e1cd 0983 06a3 0889 0daa 00ae 0ea7 f74b de1d 0a77 1002 1243 fa50 0cd8 fc2a f04b 116b 0dd0 119b 1283 ee40 02d3 dde9 0611 e99d e7b8 0ba5 0ef8 ecb8 e927 ef9a 0ebe 095b e248 0a18 0a8b 1199 fbff 0511 0d4d e505 f99c fd23 e1ee f8a1 17cd eff0 f7f7 eaa6 f2c9 fb12 087d fc7a 0094 0b74 fb55 133d 0005 e5bb f212 0fc5 033a e9ff f842 05ef 0c27 fc82 f1de 0344 f1d0 f5f9 10b7 f6b3 eecc f4e8 ff3e fad4 fe83 f165 0d53
0a36 27ed e098 e59a e1b6 f6f7 dc54 0e47 f76a 117d eb8c 061f 0bef f437 123a dcbd f4fe ef9d f204 1108 1355 00c0 eb2a 18cd 08fe e8e5 eb9f 1616 08cc f784 fbc8 fb34 eccd 09cc 02ee 0623 0854 f531 fb04 0372 13d0 013a e97d 1092 d9fb fa52 edcd f45d f82d fb7c e66a e4ef dfa7 190c e712 e306 0a35 f6dd e9eb f703 137e 106f ed82 f3de f0f6 fe50 fc46 1083 06fe efa7 06f1 0a8e f98e 0769 ecfe 02f0 e9ba fe01 17c1 0ff1 e954 d5a8 f089 e9f4 03bc f9ed 0c3f 0821 068c 2298 e579 e06c f827 065f 1572 0779 dd89 0cec fac4 0498 14ff fbbb e27d 100d 0d6d ed44 f38e 0828 ff03 1958 0b7d 0ec2 efcf f80c fda7 04ad eb87 1dec d859 eea4 f732 e9f6 0188 ece2 dd67 fb39 e0a4 1875
105e 1cae e749 e2c5 24d4 e6cd f731 fc46 1f29 eef0 0b88 e47b 0a97 0478 25c4 0b66 e24c e02e 1420 0cdb fd70 e346 1244 fe5b 07ba 01d5 f0c7 00f7 0aa6 f7bd f7d1 e7d3 dc93 1384 d787 f1e3 0387 e047 eca8 e2c4 f00a eb4c 0f73 e100 f5d7 eb03 e5e6 03d8 03ac ff38 06b8 0fbd 035f 0b76 fc31 df7c 0e60 f04c 0be2 06cf 069f 0540 fc99 029c 0831 f942 f418 e736 05dc ece6 da19 0b8c 0cd5 fd6a e862 e192 e9e6 e71c ed11 ef0c 1143 f497 13cf ec9d ffb1 0246 11d7 f8ca eff5 1f6d 0b80 0b5b 0f7a 04e0 2c56 01b7 00c4 ee90 0b13 14ae 1032 efdf fc39 0727 e47d e150 14e7 e375 e6c4 03c3 f942 0670 ffaf f54c 1e3a 0f14 01ef ff46 d0de f4f9 feba fc6f e8e0 0418 081d e3de ffa3 efb9
0c32 22e6 e153 f9d3 17f9 08de f5ba fdf2 0cb8 1667 105e f5fe e32f 0884 f861 e339 f71a feef f7ae f6fe 135a f015 1515 fa8d e76a ea9b 00dd 034d f2d6 e977 0c84 ef16 12f2 08c6 2394 fd56 f949 0131 2707 c9ff f57b 1900 eb79 fe74 e47a f1f5 0203 fb22 0c88 037d 02d4 eb79 d823 fc7a 0128 0660 f005 f444 0972 0192 f37a fd71 0e57 17a9 e9be f1c1 fa63 f100 fd08 fe16 ed9e e635 10a5 e957 f6cf e7a1 0fcb 0f3e fd1b e84a f01e e40d ecf3 e693 08b1 08d8 0ab6 15a5 ec9a 0a84 07c1 0001 ef59 1738 0eb8 10b5 001b f5c3 076d fd3b 04bd ea65 f00d 0f50 f5d5 049d 10ec f680 f25a f2f8 f2fa 0403 fb91 1791 f0d4 f12a 10d6 e8eb 1139 eb99 101a edc6 fb48 f083 ec30 ea81 045b 146c
0142 e12d 0184 eadd 28f8 edb7 f32f f24e 179f ee43 e9f6 eacc ef2f e787 e4de f0bf fe17 f652 0d1f ee2c 196c fbc9 049b fcbb f5a6 1707 01e6 076f 0a7d 028e f596 0a16 ecbc efa6 fea7 e981 f6ff 08d5 0877 cf57 fddc f8a3 f4f8 ed60 0459 08b3 e4b0 e8d8 fd0c f997 ff02 0a85 e38b e6f7 0aec fa1e 0849 e702 0408 fba2 ebaa 18e1 fb73 072e 0e50 0ed2 dee3 edbe 0495 0437 fa1e f1a4 f0c2 0c53 ff6b f720 018f e939 e96b f2f0 f2a5 e9aa f560 fdfd 0196 1aeb 08b7 0804 05dd 11ca ff0e fee7 0455 fea0 13e5 19ce 04f9 1701 f861 f28a 039a e977 f0f7 eb9e ecfe 02d4 e641 0730 0d58 e724 0129 0756 0ed8 133e 1532 e853 eae3 0219 f4d8 f3d2 063f fe56 0e05 eb62 ebeb fbfc 06df e77a
e06d f4df 0058 02e9 faf1 eaf3 eaf5 0195 eea7 01e3 f847 f28e eec8 0804 0deb e488 fc51 ff1d fb57 0a54 0fa1 0fb7 031e f23b 1350 0fb9 0148 f453 f465 019b 17b9 e7f3 e778 034c fe98 fc4d 119d f894 1f91 f47c 0727 e4f0 033c f12b ef60 0f5a f1e9 fb78 1a67 fa94 e815 e101 01e6 f8c9 e2f9 0315 ea1a e5d8 0a30 eff3 0f3d 17ac 18e7 1445 e908 e80a 13a6 088d 1507 17d2 03c6 0794 0d06 e6b6 e8dc e9f5 f2b7 05e7 f1c9 ec05 ede4 f855 f0b4 ed7f f741 1696 e7f7 07aa fb67 fc24 e2cd ea35 ff2f e563 fdeb f359 febd 0035 f601 0a0a 1241 fe39 e9c4 ef96 ee48 0d7d fda5 fb37 0040 fdd1 ffeb f017 e410 0c15 00b2 fc25 efa4 f10e 0a8c 0a95 14cc f181 07d9 f476 e8fc 001c fc7d ff8e
de20 051c 073d e8ce 10b8 f17f e38a 08ce f253 e95b f15c 0e9c e2ca f8d5 0270 ef34 e712 088f efee 13ac 184d 137a f5f5 f1f2 fe06 0a3f fa1c f5cb ee30 15ce ffb8 0630 02a2 eea1 15af e8dd 118c faca 1e35 0aa1 0581 1208 fc28 ea2b ee6b 1135 e690 1599 25b6 f1a5 f3d5 f6c7 f55b e73e 0ce1 feb9 ff2b e59f 0679 1e97 f6a5 fb82 0f3f 01e0 ff6a ebf7 e80d f71d e65d f01b 0781 f1f1 ffba ef6e eb85 e6c3 eef1 1106 fdcd eb3e ef31 1246 0080 05c4 01d7 0fb3 e301 0245 0173 2157 fc42 ff99 1001 0361 e98a f40a 115f 12ea 1533 ec90 13d6 e261 fa00 eb54 edd4 f225 0809 f76e f773 1b89 018f 171c daa6 eb18 ec39 f825 ec52 06db 0e5e 1213 ed3b 005e 0ac0 e8a0 0c43 158a f548 0c77
e9d8 f429 1a6a 042d ddd1 f42b 0175 f8b1 df01 f9e4 ed37 0594 0a35 13d5 e108 03d2 1f0c e7ab 0138 078f e72d 1bc3 00f5 f05e e90d 100e e2b9 fe17 04d6 074f ff43 f3b1 0a95 0d7a 0958 eae5 efe2 2571 0398 fdbe 14e1 01b6 14c6 f16c f81d ff90 066e eb68 2b7a 179e 01c1 ec47 df4b 01e7 0082 0e5a 0c7b 0298 daa2 fc8c f8d7 04df f5a0 09c9 ea36 f6a6 04e4 f232 ec16 08ba e511 0fe1 f7a5 eb08 eac9 fdba ed83 00f6 e86b 12f4 f5e0 142a f84f f9a0 fd51 0294 096f fb47 fd09 2027 1190 dc81 f24d 0409 fbde 0e77 f587 ff2c fc6f 133d 0e81 f109 0338 f17b e902 ef95 dfe1 0917 ff0f efd8 011f 0fdb ec0c fb00 faf0 0476 1226 0bc0 02cd 01ed f0e7 0468 1235 0810 0571 1290 0bad f50d
002f 3af7 1a66 e39d f117 0500 011a 051c dd2f e825 f8c5 eeea fa92 f64b f792 e3b1 f536 0e75 0de9 fedd 1918 20ba f4d0 f942 ff0f e7c8 fea2 e807 01dd 01b0 ffe3 0a4d 1376 fb54 eef0 e852 0162 1f90 21a9 058f eec4 e254 0f6e 023b fc90 fbd0 f65a ef27 28da fb3e f0cc e5a4 0978 fe2d e8ca 18c7 f841 0154 db02 0026 08e0 0305 1099 178b 1534 fe50 17ce 0234 0f34 f10f 0753 0c7c f6f9 0073 0f5f 00a3 0984 f74a fdd6 15a2 fae7 0c4e e82d 07f0 eaab fb51 f26a 0dba f648 06fb fe1e 0fb9 f707 ecaa ef74 0611 13c4 f5fe 185d 0311 1000 ed93 e318 01a6 0723 ea22 fd45 f999 e553 0a25 fa39 076c e77c ec19 dbfc 03ff 0f16 0f7d 09f5 12d7 0dcd ebd3 f141 139e e3d6 144e 061e 1121
