f5 04 fd fa 02 00 f9 0a fa 07 0a fb ef 11 01 f7 01 ff 0e 06 0c f9 16 00 19 fd 03 fa 00 11 16 02 f5 f9 01 0f 06 02 01 fc 03 06 0b f7 fc 08 f7 0c ff 06 fc f7 f7 f4 fe f9 f9 f9 fd 09 11 15 04 15 0e f7 01 12 fa 09 fc 08 17 0e 12 f6 16 19 06 03 19 fb f3 f7 17 0a fe 09 f2 0c f6 f4 09 fc 01 fa f8 fa 10 ff 19 f9 02 0b fb f8 f1 f8 fb 0b f7 16 f7 0e 00 0f 12 f7 fd 0f 08 05 13 13 f5 fb f1 0f
f5 18 10 07 fb 00 01 fa f2 0c ef fb ed 02 05 01 16 07 06 09 fe 04 09 f7 f6 fe 12 e8 e3 14 08 e9 f3 e5 fd ee 01 0b fc f8 fe 07 f6 f9 f7 19 02 f5 05 f1 fb e7 df ed 0a 0a 08 f2 02 f7 03 f8 06 f4 fd 06 12 f1 02 11 08 e9 ea 0f ee 06 00 f4 0d fa ef 0d e5 0c f5 0f f4 12 0e 21 f0 04 ec ee eb f6 f6 fc f8 eb ed 00 eb f9 f3 eb 0e 01 f8 ef eb ed f7 f5 01 09 04 e8 f1 ea f5 0f ff 12 07 0f e8 f5
02 2f e7 f8 1a 0c e9 10 10 09 fc f6 e7 04 1d f2 ee f4 fb fc ef df 06 0c 19 f8 f0 f4 02 0b ff f4 e3 fe fc f7 ea 0c 16 fd 07 f4 ff 09 02 f5 eb f5 17 0a 01 03 f5 f1 e5 dc e8 1b 06 dd 0d 09 ef f3 18 0f ee 05 ed 12 ee fa 0f 08 f9 09 0f 0b e4 01 e9 de f8 e5 eb 16 00 ff fc 0d 0c f5 0f 04 24 f0 00 05 f0 0d 07 ef f7 02 e8 f3 18 04 eb f4 f1 fd f0 00 08 f4 e8 1c eb 01 e9 f0 03 eb ea f3 de fa
01 dc fd e6 25 f3 de 04 e4 fe f5 f7 ff e8 e6 fb 06 11 14 f5 d4 ed 12 fa f6 dc e7 00 f7 e8 fa 0a 0b e7 29 ee 0c 26 26 0b f4 19 11 0c 01 e5 f5 f6 14 17 04 e9 dc 03 f6 18 ec fc f1 17 ee 0f 0b 15 f8 e6 15 12 01 fe ee 01 ec fc e8 f3 f3 f3 fa 00 07 0c d8 f6 11 5b ee 0e 03 fe 0a 02 fe 09 f1 0a 14 f3 04 fc 10 fe f9 fd 06 0c 02 ec 07 10 03 e9 f0 ff df 15 f9 fd 3e 17 05 f9 e8 fa 03 fa e1 04
f1 21 1b f0 fe 0b ee 02 d1 ec 16 17 16 f6 17 16 02 1c ea ff e5 07 ed 2d 14 ee db ed 16 f2 04 08 f2 ff f9 10 f0 0c 02 23 fa f0 f0 fa 0b 1d 18 ee 22 14 ea fd f6 16 17 06 03 15 09 0c fd 11 fc 0e 18 ef 1c 05 0b 15 1c 18 12 11 f3 fa 05 f6 f0 11 f3 2a e0 f4 eb 1a e5 13 15 3f 0b 0b eb e3 e8 da 0c 00 14 13 fd e3 01 05 06 f7 ec 0c f5 f3 fb 05 e5 0d e7 08 e9 1e 1c f1 15 1b 04 19 1e 15 0e 06
11 1f ed fc f8 f4 f1 f0 e3 fe fc fc ff f5 22 ee f6 03 0c eb eb fd fe 29 e7 0c ee 0f f9 f2 06 15 0a f7 ee eb 16 0d fc 03 f5 06 02 f9 01 16 fe 03 17 f1 0b e9 05 fe f6 f2 f3 f7 f3 f8 16 fc 0c 06 fb 09 ea ee e8 15 e6 f6 f7 f8 0a 0b ff e9 06 15 e8 f9 0e e9 f0 f5 0b f4 10 12 0f 00 19 d7 11 f5 e6 fe 08 f2 ff e7 ed e9 0e 0c e8 06 00 0b 0d ef 0f 0b 05 01 1f 12 f5 02 18 f0 14 eb 14 05 ed 0d
05 e8 0d 22 d6 16 11 ee 09 0a ef 05 0b f3 20 fb d8 f7 02 12 18 05 17 1d f4 f9 ef fc 01 10 ef f3 f7 e4 09 05 ee e6 d1 13 fe f3 fd e5 ea 1c ff fa be fc 04 00 fc 01 e5 14 fd 10 17 40 f1 ef 10 f0 ed f2 0b 16 ec 06 e2 0d 14 f7 0f dc 05 f6 fa f2 07 eb 23 f2 f2 a7 1a 0d 0e d2 e7 03 0f f3 04 f8 01 27 ef ee f0 f5 10 fa f9 ed 12 f2 19 11 fd 17 27 f4 20 13 0c 1c c2 08 17 08 f0 ff f9 dc eb 0c
02 09 13 fa f7 ef f1 f5 18 e8 11 06 ef 0f 00 01 1c db f6 f1 e8 fb 11 ea 11 16 0f 14 fb 12 05 ff e7 ec d5 0a 03 ec f0 f1 09 00 15 fd e3 fe 05 08 37 f7 f6 fb f6 fb fd 04 f8 f7 0e e5 03 05 0f 13 19 fe f0 14 0d 05 14 eb ee ef 14 eb ff 0e 11 ea f8 02 24 e8 eb da 0e 11 e5 24 18 eb 0b 07 f6 11 ff 08 0d 11 10 0c fd 16 ec 0c 19 0a 1c fb 19 f2 10 0a 02 e8 fc f5 cf 0b f3 11 ff f5 e7 05 1b 17
f8 28 14 20 d3 14 1e f9 1b 11 ef 17 11 16 16 0a d1 37 fc 11 07 1b 10 15 f6 fe 01 02 10 e9 12 07 e7 f3 08 00 02 15 ec 4d 01 0e fb 11 da 04 fe f4 12 12 ff ed 18 f0 e6 3d 0c 18 16 2b f2 03 f3 f7 08 09 1a ec 01 ea f7 12 f2 17 ff 0c 0d fa 0e f4 f6 f7 fb f5 1b dc e4 fc 0e 19 0b 09 f8 0e db fb 11 0c 03 0e 0f f9 fe f1 1b 17 f7 ed 1f 01 0c fa 1a 0c e8 f4 f4 26 e1 02 f9 ec 03 13 f6 f8 d6 f2
0e f6 d7 13 00 fd ff eb 06 10 07 04 10 04 e5 e9 2c d5 f6 f1 fa c8 04 e1 ee 0b 0b 14 f9 ed 07 e9 14 fd f8 10 f7 df 30 ad 06 12 10 f6 08 06 0f f0 08 01 f1 0a ed e9 1f f7 fb e5 08 0c f3 08 f2 ff f9 0f 11 11 ea eb 0c 02 10 04 01 08 fe ed 01 0a 12 f2 f6 f6 f5 10 18 03 ed e1 f4 11 fa 19 f8 08 ef e2 02 09 08 fd fe 0b 0a f0 17 11 eb 14 fe ee 0a ea 12 14 f8 ee 02 0b f1 0d 0e f4 10 06 29 12
04 26 ef fb 2f f4 1c 05 ff f4 ee 0e 0e f8 f8 17 19 f7 fb fc 1d de 05 0c fc 16 0c 00 19 19 ee fc ec 15 01 ff 0e f2 30 d7 18 f8 f4 e6 1d 2b 0b 0f 1c 08 ff 10 02 03 19 e2 12 fe 1b db 16 01 18 ee f3 00 f1 ff fa ed 04 f9 f8 eb 00 f9 15 ee fe f2 00 de fd f8 f6 12 1b 11 f6 e5 ff 11 13 1a 19 06 eb e3 eb fa ee 1a f2 13 0d 19 02 12 fb e5 01 f5 0a 0a 13 f0 0a f6 18 fb 12 10 f3 06 fb 26 21 f5
ff e0 fb fc 06 11 f5 f7 19 12 09 fb 00 12 20 ee f6 f9 ef eb 08 ef 10 fe fa 00 07 12 19 13 ea f6 e7 f4 01 ea ed e1 f1 e3 fd fb 01 1d f5 fd ec f6 dc fb 0d 09 fc 0f 11 c8 ea 11 fe 17 ed f1 e3 f5 f2 1c e0 12 0e ef f6 f1 f0 0b 05 e8 0c 04 fe 11 0e f3 1d 05 07 f0 20 f0 e9 e4 f0 fe 14 20 22 0a eb 1c 01 07 f0 0f f4 0d f3 f8 fd f3 fa 1a 0c 07 1c fc 1b e9 10 e5 a6 0a ec f3 f4 f8 fe e2 07 09
1c f4 d4 ee 22 f4 ff f8 2d f1 11 0a f6 08 1e ef fd 0c 0c ed f2 e3 0c 31 ef 01 fa 0a f1 05 e9 fe 0c 04 09 0b 09 cb ea e2 e9 fd 17 f5 fa 0d f5 07 ee ff 1c 0b 05 27 00 dc f0 22 0d e6 f9 16 f9 12 fa 10 f2 f3 04 13 f1 f1 08 09 0b ee fa 13 e9 0e 11 cb 09 1c ef de 2c fc 02 f6 0f 0f 04 18 2f 0b fc 16 07 08 ed 01 e7 0a fd f1 17 f3 02 fe 04 f4 14 0f 16 02 f3 13 d9 06 19 00 12 07 f5 03 f8 f5
e1 e2 f2 0b 0b 14 06 09 eb 13 0c 04 e2 f5 02 01 02 0d ff 02 14 ee 00 05 05 0a ff 0e 0f f8 f7 fb f2 0a fb 04 fd f1 eb f0 f2 17 08 f5 0f 10 05 0f df fd 0e 07 0c eb 05 f3 fd 06 12 14 ee f1 ed fd 03 ef 05 f0 f4 ee fb 12 06 0a f8 e3 10 15 0c f3 f6 ed fa ea 11 03 15 15 e9 f9 f1 f7 ea 02 14 fe f8 f3 ec f4 fd f3 0e 11 f8 f1 ea ed 04 14 00 e8 0f e9 0a ff 13 f5 f4 fd f6 11 f6 fb f1 ee f0 e8
0b fe 10 fa ea 07 fb 05 15 0e 10 09 12 02 05 f9 fb 09 f0 02 0f fa 12 0c 02 e9 15 ec 06 ee e8 f3 0c f5 f8 12 02 0e 04 1c 05 fd f3 04 fe ee e6 e7 16 02 fc f3 05 fa ea f6 05 fe f7 03 ef f6 02 06 fc ea fc 0e f9 05 03 f9 fb 13 f5 f0 ff ed 0c fe f1 05 ed 04 f4 03 ee f7 03 05 05 f8 f5 f6 f4 f7 ff 11 0d e6 19 06 09 ea 03 0d e5 00 fa f3 ff f2 ec 12 02 08 f1 0a f4 04 ff 06 f2 01 09 05 e0 12
ec 11 f6 f3 24 ea 05 ef 0f f5 13 eb ee 07 e9 00 0c ee 07 f9 fd 04 f3 ef f8 f4 01 0b ef f2 15 f2 f4 12 0f 0c f0 13 40 07 ee f5 f0 05 f1 10 fb 03 10 fc da 00 df e0 04 fd e8 e2 fb 03 06 14 15 06 03 f3 ed ff 07 08 07 0f 12 13 ef 0b f1 f5 11 0b fc 05 e9 e6 17 09 e4 01 f5 0c 0b f2 13 ff f3 f2 0f ee 14 0b 01 fd 06 fa eb 17 ea 12 f4 08 f3 0f e5 ea ec 07 f9 f2 2a ff f0 eb e7 18 fa 0b 05 09
0c fb ed e3 27 0f ea 0f 00 1d ec e6 04 07 ef 06 f7 e9 e7 f7 05 e3 01 02 fc 0c ec ea eb ea 10 ef f3 eb 14 10 0a 0d 19 c6 14 1c ff e5 11 fe e5 f4 ef 17 f0 e2 f8 12 ed fd e7 d5 e0 17 00 11 0b ee 18 e8 e4 10 e5 f3 12 14 f5 f1 ea 0a 01 f8 05 14 0e 0b 00 e7 00 11 ef 0f f1 eb 10 f8 fb ec ed 01 0a ec e8 ec 00 09 fe f4 13 15 de 01 fd 07 00 f5 dd 09 f4 17 02 d9 35 16 0a f9 fd 13 08 f4 fd fc
f4 08 0a f0 e4 09 fb f0 17 f4 0e 06 f9 07 00 ff 03 e9 0d e9 08 07 e8 f3 18 fa 09 e6 f6 14 f6 ef fa e6 0b f2 f0 0b fc f4 ec e7 16 14 f3 ec e9 ed e2 09 07 08 0e 01 0f f7 de 0a 10 12 fa 0d fc f0 11 0e 11 12 ee 03 de 06 ea e8 0c 0f ed e9 f0 0f 09 e3 0a 0a 11 fc 05 0d e5 fa fd e2 f9 18 f0 f8 eb f3 fb 08 fd 01 0b fb 13 00 e6 f2 10 03 ea f8 06 0c fd f2 03 f2 f6 11 f7 ef f5 ff fb ff f2 0d
0a 28 e1 e6 e2 f7 dd 0e f7 11 ec 06 0c f4 12 dd f5 f0 f2 11 13 01 eb 19 09 e9 ec 16 09 f8 fc fb ed 0a 03 06 08 f5 fb 03 14 01 ea 10 da fa ee f4 f8 fc e7 e5 e0 19 e7 e3 0a f7 ea f7 13 10 ee f4 f1 fe fc 10 07 f0 07 0a fa 07 ed 03 ea fe 18 10 ea d6 f1 ea 04 fa 0c 08 06 22 e6 e1 f8 06 15 07 de 0d fb 05 15 fc e3 10 0d ed f4 08 ff 19 0b 0f f0 f8 fe 05 ec 1e d9 ef f7 ea 02 ed de fb e1 18
10 1c e7 e3 25 e7 f7 fc 1f ef 0b e5 0b 04 25 0b e3 e0 14 0d fd e3 12 fe 08 02 f1 01 0b f8 f8 e8 dd 13 d8 f2 03 e1 ed e3 f0 eb 0f e1 f6 eb e6 04 04 ff 07 10 03 0b fc e0 0e f0 0c 07 07 05 fd 03 08 f9 f4 e7 06 ed da 0b 0d fd e9 e2 ea e7 ed ef 11 f5 14 ed 00 02 12 f9 f0 1f 0b 0b 0f 05 2c 02 01 ef 0b 15 10 f0 fc 07 e5 e2 15 e4 e7 04 f9 06 00 f5 1e 0f 02 ff d1 f5 ff fc e9 04 08 e4 00 f0
0c 23 e2 fa 18 09 f6 fe 0d 16 10 f6 e3 08 f8 e3 f7 ff f8 f7 13 f0 15 fb e8 eb 01 03 f3 ea 0c ef 13 09 23 fd f9 01 27 ca f6 19 ec fe e5 f2 02 fb 0c 03 03 ec d8 fd 01 06 f0 f4 09 02 f4 fd 0e 17 ea f2 fa f1 fd fe ee e6 11 ea f7 e8 10 0f fd e8 f0 e4 ed e7 09 09 0b 15 ed 0a 08 00 ef 17 0f 11 00 f6 07 fd 05 eb f0 0f f6 05 11 f7 f2 f3 f3 04 fc 17 f1 f1 11 e9 11 ec 10 ee fb f1 ec eb 04 14
01 e1 02 eb 29 ee f3 f2 17 ee ea eb ef e8 e5 f1 fe f6 0d ee 19 fc 05 fd f6 17 02 07 0a 03 f6 0a ed f0 ff ea f7 09 08 d0 fe f9 f5 ee 04 09 e5 e9 fd fa ff 0a e4 e7 0b fa 08 e7 04 fc ec 19 fb 07 0e 0f df ee 05 04 fa f2 f1 0c ff f7 02 e9 ea f3 f3 ea f5 fe 02 1b 09 08 06 12 ff ff 04 ff 14 1a 05 17 f8 f3 04 ea f1 ec ed 03 e6 07 0d e7 01 07 0f 13 15 e9 eb 02 f5 f4 06 fe 0e ec ec fc 07 e8
e1 f5 00 03 fb eb eb 02 ef 02 f8 f3 ef 08 0e e5 fc ff fb 0a 10 10 03 f2 13 10 01 f4 f4 02 18 e8 e8 03 ff fc 11 f9 1f f5 07 e5 03 f1 f0 0f f2 fc 1a fb e8 e1 02 f9 e3 03 ea e6 0a f0 0f 17 19 14 e9 e8 13 08 15 18 04 08 0d e7 e9 ea f3 06 f2 ec ee f8 f1 ee f7 16 e8 08 fb fc e3 ea ff e6 fe f3 ff 00 f6 0a 12 fe ea f0 ee 0d fe fb 00 fe 00 f0 e4 0c 01 fc f0 f1 0a 0b 15 f2 08 f5 e9 00 fd 00
de 05 07 e9 11 f2 e4 09 f2 ea f1 0e e3 f9 02 ef e7 08 f0 14 18 13 f6 f2 fe 0a fa f6 ee 16 00 06 03 ef 16 e9 11 fb 1e 0b 05 12 fc ea ef 11 e7 15 25 f2 f4 f7 f5 e7 0d ff ff e6 06 1e f7 fc 0f 02 ff ec e8 f7 e7 f0 07 f2 00 f0 ec e7 ef 11 fe eb ef 12 00 06 02 10 e3 02 01 21 fc 00 10 03 ea f4 11 13 15 ed 14 e3 fa eb ee f2 08 f7 f8 1b 02 17 db eb ec f8 ec 07 0e 12 ed 00 0b e9 0c 15 f5 0c
ea f4 1a 04 de f4 01 f9 df fa ed 06 0a 14 e1 04 1f e8 01 07 e7 1c 01 f0 e9 10 e3 fe 05 07 ff f4 0b 0d 09 eb f0 25 04 fe 15 02 15 f2 f8 00 06 ec 2b 17 02 ec e0 02 01 0e 0c 03 db fd f9 05 f6 0a ea f7 05 f2 ec 09 e5 10 f8 eb eb fe ee 01 e9 13 f6 14 f8 fa fd 03 09 fb fd 20 11 dd f2 04 fc 0e f6 ff fc 13 0e f1 03 f2 e9 f0 e0 09 ff f0 01 10 ec fb fb 04 12 0c 03 02 f1 04 12 08 05 12 0c f5
00 3b 1a e4 f1 05 01 05 dd e8 f9 ef fb f6 f8 e4 f5 0e 0e ff 19 20 f5 f9 ff e8 ff e8 02 02 00 0a 13 fb ef e9 01 1f 21 06 ef e3 0f 02 fd fc f6 ef 29 fb f1 e6 09 fe e9 19 f8 01 db 00 09 03 10 17 15 fe 18 02 0f f1 07 0c f7 00 0f 01 09 f7 fe 15 fb 0c e8 08 eb fb f3 0e f6 07 fe 10 f7 ed f0 06 14 f6 18 03 10 ee e3 02 07 ea fd fa e6 0a fa 07 e8 ec dc 04 0f 0f 0a 13 0e ec f1 13 e4 14 06 11
