f9f8
fc24
ef1e
0886
12dc
f85b
0d51
fd36
fd31
0118
f929
fca7
fef6
fbbc
fc19
fb96
fe92
f51b
fbc5
ffc6
fc0d
ff05
ff5e
0276
fc05
fe65
fa04
fc07
f3f9
f009
fccd
1cca
fbbf
f6f6
fc82
fea5
feb5
0185
00af
fa4c
0113
09ae
fdf0
fc19
fc8f
f530
fcd3
0011
fd3a
f3e3
054d
f4a6
f8b4
fb16
00a4
134c
01bf
fc9c
fa8e
fc94
fc46
fc3e
fb59
f3d5
