f3
00
fc
fd
0e
fe
f9
fe
fc
00
ff
f5
0e
f4
00
06
00
00
f9
f6
00
00
f5
fe
00
15
00
00
f0
02
20
00
f5
ff
fe
02
fd
01
00
00
00
fe
f3
f1
00
fb
00
00
f8
00
00
02
fa
02
f2
fd
fb
06
db
ff
00
fe
00
00
f9
f4
fb
04
e5
00
09
01
00
00
00
00
00
02
e9
00
00
01
fb
fe
ed
00
fb
f2
f1
f7
09
f4
07
00
f4
05
fa
fc
00
00
e5
f4
00
00
fc
f6
f2
f4
01
00
06
fa
00
ec
ef
ea
fe
02
fe
f7
f5
fa
fc
f5
00
00
00
ef
