e575 1737 d3ee
fa34 11b2 03a2
0b33 14d2 09cc
08f1 09ed f05f
f0ac e863 dbfc
dd5c 0ce7 d0e8
1ad4 ce4a 1535
1b97 2449 2437
f5b6 2705 01a6
0b56 f579 06ae
d74f cdd0 e07b
d8f8 fcab eb5f
eecf edc5 f6be
2e3b 2778 f5a6
095e fa25 27df
e9a9 f7c4 30f7
dadb ddce cc3d
21dd f5ae f8dc
ee4b e51c f268
e3be d0ef fa8b
f60f dd22 078d
e1a7 d0bf e308
e0c8 d4aa da2e
ed05 3097 08b7
292c efd1 e68f
e87f e295 f13a
24d9 d434 05ec
2cab 15a1 14fe
054f 0682 eea4
f201 13f5 0790
e994 1843 161c
db62 2ccc cfb1
