f317 f390 f290 0543 0def e5e0 0ad7 1496 ea69 fec5 f8cd 00b4 ef02 f957 f9c1 124c 0017 05f6 ee9b f003 ee0f fade 08b6 f1ec 0541 0c27 1362 fc93 f488 080e 1132 0492 09fc ed9c 10d9 1151 0465 0c82 fbad fc89 0b52 06f4 eaab fde6 13e2 12d0 fd41 ea08 1257 0ac0 0536 003f 014b 10a3 ffa3 02a3 10b4 ff1e f013 00ef e9dc f309 11a4 ebb6
f973 0d95 16d4 ddc2 e0f3 0b00 f12f 0eaf fe96 fccd d82e 1b80 f691 1ab5 f3f6 f35e 0872 02ba 12e1 fd03 ef5b f158 097e f656 ecdb 0b02 1906 ed5b 0935 2e04 09c2 ff81 0193 21ad fac9 07a9 11f2 ea56 e059 fe6c f5a7 0a45 022c f415 eaf8 1510 07bd 1409 0626 308c 1b7a ecf3 174e ead4 0677 ed0d 0d13 f6e6 fc4e f70a f2e6 0d33 0d05 fa30
fa27 e790 fbd1 2190 0b80 0239 f72a ed9c e8e7 0f9d 14e7 fa6d f5f3 f532 f41e 08d4 015d f217 1300 fcf1 10d1 e84d f7ec f8a8 1332 18e6 0a4c fc1c 039f eeac 0971 b968 fc4c 09b9 0f25 0c18 fc62 0eb9 179b fd6c e3b3 002e f4a7 ffdf fec0 0673 fe72 0002 0812 0852 f608 0783 f339 0a2e fd01 d604 e959 fc64 00d8 03d6 eb02 f8b8 ef39 0b3a
0d1a 0eab ea78 f649 f8ba 0218 efd3 f73d e7cd 0c1f fb9c fcf7 e9c7 fdeb e973 ff27 f2fc 0c4a 090a fcd4 eb47 0474 05c9 fb6c e88b e9d6 ef3f fa5b fc34 f690 f2f5 064d ede8 0bc3 12e9 f26d 0400 0f54 0758 03c4 05b4 f507 fd72 1182 f2a6 ef93 f2fd ff15 fcf9 f7bc ff8b f5ef fc80 054f 05be f3a8 fc60 ec52 0d81 f87a e85a e7b9 f8f9 efda
e460 11f4 14d0 e5f0 ec61 ff02 23c9 e983 0126 fc2f f1b6 ec08 f3aa f291 edd9 0d5f f8a9 111e e399 0dc3 099b f555 0c29 e54e f076 d6fe fc81 ec47 fa18 2d73 03de 1696 f469 093d d834 f6da 13c4 ebc7 d7a9 f8e5 01f5 055d 08ee faa4 de92 0c4e 0a77 eeb4 0126 019b 1c46 c2fa 1639 db03 f0f2 1e7d 071c dc5c f245 fd98 f93b e7d6 df2a 29f2
fd35 06dc ead0 03dc 022e 10e7 efb5 f311 0335 01c3 f81b 037d 0c53 07e9 1169 ea94 0f6f fdec f95d 104a 0bc8 ed40 eeab fa1c efbd eca6 f7e2 14fa e624 0c2e e9ec fb82 fb03 fe1d 0a06 0deb f0b9 f56a 020a 121f eadf 0786 fc58 1114 03c1 ea40 ecba fddf 0d49 f7d3 ef5b ed71 ef5a f6f7 f49c fd47 f8ed 0d5c 069d f167 ed67 0cdf 00e7 07f4
fb0d f912 f3da 09ae 1350 0c10 edce e9d8 f13a eaa7 073a 02ae edae 0e1c 0c4c 0e9b ff42 05b7 122a ffe7 f006 07bb f859 f9f0 f128 f516 f2a2 f267 f09d 0f1a fb22 fe04 f4a3 fe43 eeae fda4 fddb 1199 fea1 f820 ed12 f926 fea2 0149 ec6f f5d3 fc22 f3ba 070f f7e9 0027 f1c2 0147 0ed7 0dfd 0dea 0305 0468 1292 1065 0aaa f1f6 f8e3 0430
fc50 1689 f605 e99d 12de 09f1 0887 0823 1482 0bc9 ef21 eb5e f910 fcc7 1695 1165 f68e 0961 0129 fcab 068a 0014 112a 0830 09db 1166 f210 13cc f5de f48e fbe9 fde1 13e8 01b1 f71a fce5 1558 f59b f313 158d 15f6 f65f ff71 f75e f137 0c48 06ea 0d87 020c 05e0 13f3 fad4 eae4 0bd1 0910 eceb ee6a 0456 ebc8 0b78 f9c8 f35a 033a 01d0
069b 052f 10ae f177 16ed 0c2e 151f ec72 fb8f 03d9 0344 0504 01e7 fcbf f7e2 0ba4 076d fa1e fe5c fcac 12ba 0e1e f883 045a 0356 0060 0a39 fe7d 01b7 0589 fae9 172d 0e4c 0732 fc9b eed8 e9a7 14ea 0b02 0fb2 f1c3 06ca fd9d f7d5 f31e f16d e8e2 eda7 01fa fd82 1e54 fb9c 10df f3b0 ef2a 11d4 05c3 f22e fa9b e928 11dd f3c4 f8c7 e714
0cf6 fe49 002e 029f 0964 fe6c fe65 f779 068d fa82 fb0c f2c1 f635 07b1 f7b2 0a97 eb94 1446 ef74 1122 0b45 0a93 fdda f4cf f829 e948 0727 0f19 f870 edf5 0fc6 07d5 ecba 0c90 e9cb 08fc fab4 00e0 ebe8 09a4 f250 182b f0f9 0b86 00ee ed8a 0961 fdec 140b ec7a fef1 e6d1 0f98 effd fdc7 f346 016a feb9 0e4a 0637 0440 0e23 ff58 fb8c
0ac4 fece fa75 1735 f6c0 e8ae 10e1 f9be 0e4b f128 f935 f91b ef5a fe73 eafe f037 fde1 00e7 ed27 073e 13ea 1098 fa7f 03c0 f533 ecc7 f659 ee89 ec9d 1593 f754 06c5 1515 081d 135e 13ea fd0f 0f36 f4d0 f0f1 0ef9 ff0c 150e ed4c fbe1 0c6e 1417 0219 f802 f9a7 109d efe6 0c74 0d94 09d0 16c3 f04c f40c 0947 f39a 0cb3 135e 01bd 10d5
03d9 edc3 f7df 0d3c ef0c f2f6 ed5f e918 fc3e ff0e faab eb97 f019 1200 0e67 08f4 0a80 0978 1108 1453 f166 09f0 f4f8 1116 ff4a 03b7 eb22 06d3 f27d f125 ffb5 f993 06b3 fa19 10ba f6e3 ff12 eb2b 0f48 f199 10b8 e552 ef6f 12f6 f002 015c f7b4 fea7 0526 016c 0206 0151 0b8a 11cd ec4f 111d 0251 fdec f283 ef46 08ad ffc5 fab4 0d19
0b58 fb49 0370 f868 f5eb eb6d fd5c f954 f8ac ec7a 0a96 fab2 14ad e8c6 ef7c 0603 025e ff34 f0bb 000f 0337 f5da 0a32 fe90 ebda fffa 0d92 fdd4 049e f434 fc01 02bb 00c3 10c4 139d 00a4 f760 fd08 faa9 eee3 f5ec f775 f01f fb7a 0758 115c fa7c fbb5 1315 ff5e fb8f 024b ea48 0975 0d6b 024c 0d56 f6b6 fe1e 01ce f8b4 fcaa e939 023d
07ab 025d f78b 067e 1017 1541 f875 0d1d eafe 1334 0d32 1273 fe19 fc25 ea27 f7f8 f1d1 f516 141a fb8f ed60 0d1d ee7b 0142 00b4 0a42 fd63 0916 0349 13b1 168a 10a7 ead5 ee37 0193 009a 0b5e 1296 eb91 0181 080b 014c 04a6 1142 febd f098 fd65 163b 0958 0e00 0e18 0193 0768 048b 1308 f448 f038 13ca f031 0cd5 0a40 10b6 ea59 f992
0e55 0532 e831 04a6 0eb0 0bdb 1333 0021 0bb3 ff31 019d f4f4 fea9 eb55 0688 f402 0bbd ea8a 009d 13c0 ea32 ec23 e8bc 0d13 f0c2 18c8 0c12 f985 07f8 e597 f3fb 1805 ecdc 0e76 f23b ede6 f3fb 059e fbe5 009f 1393 f511 ef6c fb30 e97d f0bc 0894 0374 f03c 1be4 fe1b 1707 e30c 04e3 0df7 10ff 0816 f3a3 045f ed35 eda6 f54b e79e f4bf
f96a 0982 0f46 0615 f048 016a f59e 124e ff2f 0c48 0926 f91d fd74 e7ac ea12 ea56 12a0 ebc7 05a9 f034 043b fcb8 02a1 11cd f514 0916 f908 08ed e5f5 0e26 eac3 fc0b e8ae 08d4 fcd7 0c19 ff78 f5b8 0582 0057 1167 fc48 044e 1024 f091 0117 1214 f447 fd4f ee94 0ada f6f4 f993 f619 0224 f718 f1c6 fdb0 006e 07fb 0962 f190 ef01 f149
ebc5 f3fc 04d1 12b8 07c7 f594 e2e6 fcd3 0b10 f967 f52f fa2a 0770 f90e 0e22 f1d6 ead6 1210 114a f7fa 011b f4dd 1638 08b9 f1d3 ee7f 1607 0363 054e f5b0 e73b d0be 0269 04f3 e238 1457 1242 12f9 0081 f323 e88a 1289 0af7 f636 fd75 f8f6 f11d 004c e9c8 ff3e 007c db9a fe9a f2a6 0ad4 f2e8 0fcd fb87 00b3 f203 0204 fa5e 03c3 179c
14ac ee3f 0b09 fe44 eef0 e6f7 0e43 09d5 f352 ed9d 218e f86b f220 00cd eea2 0a93 07c5 ebbb 04d8 1440 0661 0c9b eccd f04b 0beb 0ada 092f 0999 ef3d 0211 eec0 1019 f1b5 e875 fd7d f0d8 0e6d f157 fe91 1399 0631 e8cf 0aaa ef1f f9b1 001c 0adb 0352 0a6b f0a2 f0fd 0f8d 041d 07ff ffcc ee4e f66d f92c f47c f3e8 fa43 0cdd 08cc faea
f134 06c6 01fe 0cb7 0d9e f20f f70d 1667 ef39 0a05 ffbb 042a ff0f 07c5 fc76 ff29 0670 ec7c f869 110f f8ea f407 00bc 1255 edbb fd43 f1ad 06af 0487 ef40 1239 eb83 ea48 081b 09f0 0f9a eb03 f940 e972 f958 f4a1 1581 0cd6 ffc7 0478 f4c4 fc96 118d 0ae4 f3fe 0264 fe02 0ef3 eb4e ef58 05b8 fa42 1680 f7c0 03c8 0a72 0d0a 0c6a 0385
014f 08ce f66d 0490 f79e fdbd 04a5 1365 08f7 f417 f5d6 1430 0cbb 071a fe3b fce0 07f8 ee76 e967 fb28 00cb 0efd ef9a 0998 13fb fbf9 0288 feb4 013e ff9a efa3 07b5 038e 0e90 0230 05e3 f2c0 0554 08b2 f801 0114 086c f216 ee1b fc67 0b3c f340 febc ebc6 f98b 0a76 0452 ef21 f71d 1694 ea76 00b8 0371 e8a2 f4fc f931 ee12 e9aa 0e91
0197 0cc4 da6e 0553 195e 06d2 124a ea5e f639 f9ae 0047 1017 f09d 0986 0935 f37b ed08 f2fb e4fb f408 fff3 f70d fb62 07c4 073f ffc1 fc74 f1f7 0042 fc42 e954 0133 ec24 e651 0eab f6f2 e448 f9e8 f10c 051a e2bf fcce 1868 f0ed 0ae9 f82f 0668 0882 131f f7d9 0f71 ffe8 f1de fce6 16f1 2180 fec1 058a 0f24 fcb9 fbee ebc9 01f6 035c
1e0c ec44 0128 130c fffa 0125 f336 0109 fdc0 f3f7 04b0 0c22 0568 ec37 eb92 f6ee fa23 ea18 ead2 f8c2 11aa 0fc8 ef07 ec49 03e8 04a7 e96f efd8 029f 0bc2 f355 d7bf 144b fdbc e884 efce 0cf2 0b8e 0285 ecd1 fa43 00d2 f078 0bef 1149 1112 0b87 1b6f 01f7 f053 ff81 1345 f32a fbbc fd29 0185 f509 fc94 ec10 109a ff56 0c19 0043 ef75
fe8e 0b7f ebc1 f2bf 0264 fb5f 0d5b f023 f8ab feb8 13de f3fe 0049 1534 f08f 0bbb 0b81 03da fcba edec 0dcf 1566 0e54 0296 064c f34c 163c f9a8 fc2b 0adc 0c95 037b 10e4 f8de f7a3 0a03 11be 0e6f f470 1264 ec27 08c9 ea18 f022 f749 0f2b 0af1 07fd ea08 0e01 0591 f86a 0677 0908 ed4d 00b5 f0d4 ecf3 eb05 f158 f612 0e32 f689 e9d8
fb2e f49b e365 061d 153f 0d54 1df5 1053 ead4 e999 10be e940 1636 f732 0e09 ec7b 10dd 043d 0cc9 fc2b e9ef 0534 e747 088f f46c f4f5 ff15 03f6 e3b4 e001 0613 111c f8ec e02c 13c9 1265 e5a8 f17e f20c fa47 028c f413 f2b7 0e71 01dc 0609 fae1 f507 12f4 fabc e1c4 160e e8a2 10bb fb10 febc 0d62 e818 ed3b f610 0d60 ea51 0541 dccf
02b0 15f7 f5e8 f1d3 0b69 0966 0e3a 1577 eede 1308 f4ea f84a f664 f78c f51d 0f0f 0b59 044b fdd8 feca f39a e9d3 10f9 0ad6 ec11 113c f933 ebc6 0a02 07fd f56a 03c4 f49e ee34 ee7d eb6c f93f eb11 f5a4 1306 fa18 103b 01cc 0c09 02e0 0d92 08a4 0b3f 01cb 1691 1150 f222 144c 0e9b f1dc f24b f1ad 165e 143a 025a e9ca 0a1f ff30 0671
f10b f988 f6d5 0548 f2ba 023a 044f 0bee eb4c ff0e f4d1 09bf 0698 07ba 0b5f 0d32 ec1a f5a1 ea2e ea56 f0d3 048e 11f5 165d ebd0 e883 0164 f74f 0988 ee02 00d4 f148 0463 ec94 f241 03e0 1b40 eac3 00bb 0840 0a6a 0cdc 08e1 feca 09df f6f2 06c5 001f ec99 f470 01f8 e08c f40f 0fd3 fc1f ed53 00a6 10b4 ecbc 16d6 e749 122c f1be f081
f919 f32e e28d 061a 1f04 11b5 1b24 13a0 fe50 1871 fda2 f53b 0462 0f99 00ca f26a 128b 0726 0617 0e42 ee7e f286 0c8c ffe8 06e9 0cac 0505 000d f61e 023c 0cf0 188a 049e fa26 fe9e ffaa f021 f9b0 fc2e f91e 0fed fec4 0a67 e867 f34e fc7b fa57 180f f90f 10e0 0899 f811 f7bc f0e5 03a8 1635 0a65 01f0 f159 f559 13b8 ef3d f6d7 e6d0
f30d fff4 0e28 faa3 114a fe35 0167 ed6d 0359 0129 fc00 0ae5 eda5 0d59 0064 f45f 104e edb0 079b 10a2 065a f4cb 0b65 0918 fd90 0a0f ef82 0f47 f1b5 066d 00e3 fdbd 08ff 0d77 fceb ef6e f806 fae0 12b1 ff48 0d46 1272 f221 0e74 ef54 ebe4 f178 f3cb fb73 e918 0557 010d 090f ec97 04f9 13b5 f931 f12a f68a fab1 0dfb 0656 e64d 0e1e
0158 1223 05ee eed4 f413 0758 1768 171e f4b3 0625 f00c 08ef 02cb 05e4 0a20 ed7a 0828 ed61 0bc9 0eb7 f6ec 05f8 0f18 0309 f540 067e fce2 efcc e8da fda0 08f0 2181 fbe3 11c2 1011 fd13 e42c ff16 eb52 08f6 ef6e fdd8 e80c 12f1 efaa efeb 06b9 13e1 0f06 f451 f8e5 005b f4df 1284 f76a fd22 169d 0ea1 f398 089b f71b 1495 f414 fb1f
0172 0791 fbc1 ebe3 053f 064b 0a48 eac6 0a13 f2bf 0427 eab2 0805 fd22 eecd f512 ec81 1391 f0b6 054c 1134 f4e9 056d faa9 047f f845 eb29 042a e979 f513 fcdf f595 13c2 f9e6 f951 f839 f0a0 fd5d 031a f276 fb4f 01fd f10b f682 06be ff61 fceb 11e3 fe46 0cf0 eb0e 0521 0f96 fb78 13b0 085e 126c 065e 0a2e f59e 0249 f79f 0fed fe19
eb73 0cf9 f461 0721 f3c8 fe49 f0c7 f29f 0d8e 13b6 021d 0f3b f524 05b3 f7c5 f117 f978 fb32 0971 020d 01ee e9cb 07db e991 ec22 1342 039d ef0e fab7 ef00 f0b1 f78f 1125 0eeb eaff f39c ecf6 ebf0 12af 09f4 036f f89c 10d3 0784 e9a2 faf6 effb 0cb5 0b48 04bd 15ef 0ce2 f36e 1308 13e2 edbb 0af7 fcb8 f94b 12c9 eb32 0de5 0ef8 0591
ff96 0d58 096f f35d f304 0ef5 f955 1560 0b28 f271 03b0 126f 151a f6ca 013b 1197 0592 0ab8 0a1d fe4b f7f7 eb3c 0b7b f29e f666 08e6 faa3 07bb f8f4 fb9b f8e0 f8ca 0239 f91f ea19 13b7 0e63 fd70 1506 f0ef f17e 0309 13f1 105a ec8b f860 0bad 088a 1396 027b 09fe 07d2 ecde 1371 ecbb 04f6 094a 14e9 fafa 07f0 1202 0827 f8f1 f940
0465 ebac f9ee 03d2 05ed e4e1 fa1a 0009 f75d f8d0 1567 e863 f31a fa97 069e 116b 088d 04be e97f 0556 0a7b 0e07 0dab fca5 f554 02cc 0122 f50a f6ac f13a ff9d 002b fba4 071a fc86 0088 088a ed27 1161 0a9e 0089 f603 f060 ef47 0380 0e19 f539 104d fba2 f4a9 f357 f460 078d 02d7 05b7 f3a8 0efc f045 f3b5 f4ab 0743 e998 ea1a 1087
01c8 ebd5 0cd5 fe14 10b1 ebc5 01c8 f2da e953 ef8c 07c2 1038 0c0b f498 fe63 f5c1 fe4c 0849 0956 ee28 0994 e9d2 052a f207 ffb9 f723 ea14 11c2 f868 0938 0807 0e92 fc1c eaaf 071c ef22 0c7a 0346 f834 046d 015f e340 047e fc4e e820 ef7b f2df 0c4d ff88 0086 eaed faa3 0664 ee23 00c3 089d 0545 e8d2 ec4e 07b7 0564 ec8e f843 0ef8
161d fa0d 1e96 e1ed fce8 0e59 f4c6 f77f f394 f1dd 2c2c ff3f f01d 1438 0187 e9fe fb0e 21bf f7f5 1630 0ffc f86a f093 fec9 000e 0fe2 0986 ec2c 01da 14ec 13a5 dc95 0b70 0ee9 0ef2 fc92 1022 0081 f4f7 07c3 fdf0 135d f0c1 f137 f16a 2d46 fdd8 1451 ef76 0eb2 ea0e 082f 0411 10e9 0e0c e16d effe fdb1 10ba fd3a e7b4 0d12 ef4f 1028
f9c6 1618 1506 ff2b ec4b 0f53 0c76 faed 026d 0b54 fb4b 1467 ed26 ef80 0e56 0904 ea98 f849 efbb fb64 0293 059e 144d 09c2 f8d1 f973 0cd7 0d27 ee80 038a f58c 03b2 0b4f 105b 0bf4 0834 f05d 0b67 f8a4 0a57 0a7c ff46 f64a 0cd2 f314 f8a2 f9a7 f0c4 f508 105b fcb2 0e1d f49d 148a f3ee 01cf 0c68 f1ff 08a1 f984 150b 0047 027f f6e7
f41e f472 0c3e e987 14d5 0abf ef9c 020e eb4b ffc3 e9ad f433 0b09 fa7f ec9f eade ffc2 0d60 0ddc fc89 0221 f0bb 1503 070e 0731 00e5 049c f4fd 0aed 01f9 edbf ef81 0b4a 151b f4b8 0698 ef41 ecee 0f4f eced 0b7a fa34 fb99 0b55 09eb 0c04 126d fabd 0a85 f8aa ecee f66b f7ca f733 03cd 0b86 13f3 ee90 1422 fd15 137b f577 06fe ff94
04da fcd0 00e8 151a ebfc 0357 f995 ebc1 04ba 0590 0cc5 e7d9 eb97 ecf0 fd69 101e 0dcc 064d fc95 1ce8 ef6a eea5 0458 03bf e89c 0edc 0cb2 f4a6 133a f33d 0e38 e68c f71d 0c2d 07a6 09cb 052a 093d efd1 f025 09c2 faba e8e8 082f ee49 f646 13a0 fa64 ed00 047e f9cf 1194 0560 0240 0db6 e079 f45c 06ba 09c1 00d4 ebf7 fd95 074c 0d23
06f8 04ef 0664 ebc9 ca84 e102 da4c 06b0 f684 02b7 db9b f5de f9d1 f522 07cc 0489 fc7a 2e41 f5e4 0717 edd5 e85c 294e ec83 f3f4 faa3 0fcf e34b 20c5 4292 efb5 e6bf 0694 137a e983 f02b 182d 0146 ec2a 12cf e089 096f e447 f205 fba5 2209 1d64 fe78 fc82 1c88 f65f 0b0c 1346 fa17 f6d5 ea66 fedc fc1e 0063 09f6 ee76 f489 0c4d 3509
3c5c 1057 fbe6 5bf9 4f33 fde8 e55e eeac 0e90 f218 4458 f6db 1e87 1138 08b0 fb5b f67e f41a 07b3 2b04 fd6c 0ec7 b9d0 e706 0638 fda6 07bc f7a8 f46d e920 f3ba ea1f 0f27 e8f1 1605 169d ebf4 f953 040a 132c f4b4 f500 0ab5 0765 0a48 f94a f0f0 f4f7 fe6d 04dc ea4b 574d f78c 1420 0953 ea91 f5b4 f154 0e9b f058 fe66 fea3 0502 d0bc
10da 0a7c f11f 0d0b ea62 112a f16b 0613 fd62 ffc0 f4d8 1562 0bf3 e9ae ea1b eadf 076c ff5b 1201 04a2 092c 059d f6e4 f8c6 0d04 035b 0664 ff6e ebeb 08f6 f856 13e1 1351 1433 0b0f fb04 fb4c 0fa4 0686 09ea f58f 0ce6 f210 0a5c ff5b ea75 f890 e96d 057e 091d 0f32 11ce ee08 0c4c 0a6e 11c1 0026 ecfd f697 06e6 fdbb 0781 f7d0 ece9
1305 0efc 0564 0360 10a0 f06e ec67 ed2a 053e f01c 0ea5 0225 14da fe1c f38e fb98 1301 15f0 05ca 1192 e86b 0b9c 0939 0839 0115 01ae 08dd 0dd3 f398 fd50 06a5 f544 fb08 0ced e712 f60d 1f57 00a5 0926 1248 0662 f4c4 f6b3 f0a0 f052 f330 0305 0c88 0c20 07c2 005b e2cd 02b0 fd77 17c8 0ceb f83d 11c1 ebc3 0c3b 0a64 f0e6 ec00 18f1
1167 ed9a f053 0dfd 0ea2 087e f0b9 097d 07aa f7cb 0f4c fb9e f8e3 13e0 fd4f f26d f35d f1ed 02c0 0eec 0e45 15c6 129b f23b 0e0d f63c 0ce6 f5e6 0e80 f824 0131 f39e fedb 075a 148a 07fb 12a5 eb2b 0749 0596 0967 142f f3b7 f1cf f5e8 0639 f6e1 0d28 f1d8 f549 ef5e 0e30 f148 fbb7 02ef fe75 0ffe f3c9 f5d8 13bf 0f06 f156 133d 052d
03b4 ece5 feca 0878 f7f4 040e 0e2e 05b9 05f0 f2df eea0 ef25 f251 f30e fb6c f892 e8b8 f16e ebd3 11c7 e9df 035d fca7 0a0d 05ee f8cf 0f5d e8c1 0eaf f93b 098e fb4a 13b0 0b75 ecac 0ae6 fb28 ff37 158b f5e6 efda 117a e936 eb4e 0c66 f725 0341 ea5d e943 f159 ffcc fc36 0f16 f113 fe6c f790 0a97 f743 0d74 04e0 0169 eafb 0a4a f3cf
1523 0705 001c f9c6 fb18 052e 082f 1403 ea72 f114 014c f9ba f8fa 0100 040d 0324 f333 1102 101c 0b7b f982 ebae 0e4d ff53 f8fd 0d99 f2b0 1017 01d6 0e1f 02d0 095e f48a f316 ec0a 041a 199c fdea ff6f f5a8 1046 e106 0901 12a5 0561 02a0 000f f2c3 f371 fa1b fb93 fa2f 0d07 f585 fd66 fc8b 0637 1365 07fe f468 f846 0d35 1185 1067
f30b f8e3 fb3f e33d f092 e9c9 190e fb9b 1099 1060 dbd1 ecce 05df 0888 e951 01a7 148b f3e8 feb0 0dc8 0bc6 04a4 fc67 fd9a e9ec f2de 04bb feb4 fe88 092c fc50 15b8 16c4 12c4 fc3b 0a87 f0b1 039f ebdb fd47 0130 e974 eaa5 feea f41f 24e5 f5ff 02b9 0766 28c5 2044 ef90 0b70 073a e17d 106b 0d3b 01e0 f9c6 d3cf fcb7 f949 033a 1aff
f1e8 0a44 12af 1209 014e 0183 00b3 06e0 020c 09dd fb0a f768 1239 eb4a f804 e83e ff85 fd85 f7c4 0377 1032 eb7a 0420 0229 fc54 00ca 0da1 f982 fbc0 0432 f24a fe85 ffeb edee fd7a fb5b 03c6 eadb 0b05 ee9e 064b 0ae9 f385 0861 0abd 00b7 ff49 f5f8 fdbb 0e5c fdd6 04d4 0878 f30d f1a8 fae5 0360 082a f486 0797 13cd 13a8 11a4 05f1
fea2 fc59 0576 f13e ef8f f36e 0dfd f3a1 ec70 e9dc 0a42 09ca 066c f9d4 ee6e 0a19 0aa4 0fc4 0032 0fd2 fe6a 0442 0e56 fc63 0145 12f4 f181 0b29 0c42 f773 07b2 146b f585 f44d ed71 0bea f3fe 006e f823 f4e8 f0de ff3e f13b f5dc 15e4 f990 f092 f778 0d21 0566 f040 040e fc8e 02a7 ef6a 165f f527 fd46 f59d fe3a 0901 05f9 f3d9 eb97
18e6 108c 10e4 ef19 e2cf e23e cc00 fd6a 053d 0831 0dfc fbde 0835 0579 09ef 0b22 e667 1985 f26a 1a61 1095 0373 fdec e835 fe9f 136e 1245 fb2b 20d7 123b fccf c37b f6cf 208f f79d ec0b 10e7 f796 0015 f577 f131 ec4f fa0c ea11 ff1f 1482 1744 ff53 ef75 1948 fed6 1897 2053 0d03 f0f7 cbd0 db10 fdcb ee42 0d6e ff31 121e fa74 2a65
0870 0f8e fae5 0fd8 0f10 0b2a 02cd 142f 02eb ec4f ebbb ee29 0fbd 0136 0f08 12db 0a45 147d 1321 f338 0a54 0534 ea56 f202 ffc8 04b7 f7b9 fbce f85e 066e f47f 14e5 ef3d 12a7 0a8e eb3c 0de6 0c5b f8bb f985 1553 0387 0378 f715 fff3 0449 fad0 1416 fd54 00d1 f0dd ecdd fcc0 f6b0 0b8a f546 164e 04df 12f1 076c f4d0 137a f41d fdfd
f348 f642 0988 089c 0a22 fc18 05a5 ebe3 f9c5 100e f91d 06a7 ea45 0b13 f447 ed77 0e69 fdcc ed59 01fc 1244 1294 0c62 0314 096f 0cb0 eb51 0fe1 e942 ffe8 ec0d fe4b 136c f5a6 f93c f22e f6f1 f3a8 ff9d 041d 0a1f f53c 0f2a ef39 0baf ed00 f0ee 0c52 e892 f262 ee20 0a16 0d25 f604 f4d7 03cb f768 0db2 09ba f648 fae5 0385 ebce fc08
f973 01b7 eec9 fb11 06b5 ed48 0975 0e86 01ec 0285 0a10 f804 f0c5 fc06 118e e8f0 f90f fd09 f552 f7cc ecd2 fd91 fbf1 fbaa 0c17 feae 04fa e86f 0b5f 05eb 038d 0c58 fb45 f425 ff4e ffe9 ff2c ed81 f250 f385 0ff0 08e3 f182 fdfa 04ef fe99 f7de f20f 0573 0696 f3fd f0bb ff54 0bcb ed7f fbcc f396 ecfa 0785 ef8b 0819 02e5 0f9b 0000
f304 02da f246 037a f00c 09ca 0ff9 0aa4 1193 faad 0ab9 f250 f6bf e70c 0b3e 0ef5 ebe0 f2c4 015a f063 1067 ed07 f7f1 0874 ed8f f40d eba9 01d4 ec87 f096 05ff f220 ea18 088d 0305 13fb 12f1 f680 fe38 e9b3 ef19 e683 1622 052f 0e1a 07b2 1584 f0d9 113b eaef fb7a 06ac eead fe4c 086e fc1a 05d9 0e33 0539 0246 f37f 0d98 f4f8 f92f
011b 0769 f494 105e 0dd9 0386 0410 ef61 0106 05a3 e926 0c08 f6b1 ec97 011a f44a f194 0d08 fa24 1791 12e4 0f3c 1086 f79c ea53 0d1f f34a 0592 f5e1 f442 ee1e 05b6 0ca5 facc 10ee eaa1 e284 f8d3 07cd 08ff 0d4d eff5 f266 ebde 02c1 f57f fc3f 093e 02ee f688 072f fb98 07c4 01d4 e9ba 0835 fb58 0cf2 f572 f108 ec82 f5be 0458 01b3
01d2 128f 0a1d f4ad fc4e 0fde e97d 001b 0075 fbce feea 0bce 1617 10f3 091e 0b72 02c9 f875 0ab5 fe47 06c5 f2b3 0dc8 ed48 1144 f537 0536 f689 0219 f8ba f445 e844 f29c ee00 f938 0e20 fb32 f090 ea87 0a7f e8c9 0eb9 1447 fe83 fa19 09eb ec71 f190 ea3a 0060 fd1d f71a efeb e713 ec1f 0142 02d2 03de 0cc6 f65a ea86 ed70 00a3 0b63
17b0 f421 f82d 1464 fc0e faad de48 e9ea f83a 0574 18f5 ee94 facf f3c2 03c1 fce0 fb47 03e1 e9bb f3d2 ed18 eb5c f1e1 f786 eba4 fcd0 f76c e8c1 fceb 0637 ed74 d7c5 0673 1686 fa5d ed72 f78f ec3f f095 fa28 003b f473 f123 0b76 106d 12c5 f40f 0883 092c 1394 1208 0991 0ff5 fa63 0df9 e2ce f35a f9fa f24e feb8 02b4 f0cf 0055 fbde
f492 06b6 0591 0195 fe58 ffbb f3c9 f827 ffaf f4ce f55f ee2f 0a98 0d09 ea61 f43e f65d ec82 f872 035b ed68 e7b3 08f2 ed4f 062d 05d3 e7f3 f190 0a65 0cc1 0021 fc71 0dfb 0497 f735 00a2 0f66 0d9e 08f4 108a 0770 e814 0731 13bf 0d18 0b97 071f 10fc fadf f0c4 f551 f925 fba0 107b fbf2 042b 0e02 f899 e8e2 0a24 feb9 07c9 105a f5d8
0b75 f412 f15f fd54 10db fba3 114f 0dd0 fc48 ef59 ff14 e663 07da ec37 f2f7 f22f 0678 007e f248 1328 fdc0 005f f983 ff3d f886 09b2 fddb ea35 0c32 fb20 084a 029f eb7e f172 03e8 00c6 e6c3 143a ffb7 0a51 090c ee95 f659 e8ef fa76 fec3 0208 f655 1178 fcbd 118e 102c ed48 08f4 fc44 087f 07bf 0001 02a4 14f9 06d4 0564 001f 0bbe
f242 ec30 eefb 0a2b 0f16 e67c 0931 f3c8 10ec 077d f3eb 09c0 e4c3 edd0 02be fd7b f4d5 fec1 0e57 f544 033b fb89 ff39 0d91 08fa 0eb0 e804 f371 0e51 0f61 fd7e 08f3 0115 e8ad 0239 fb58 1255 03fc f7aa 0e35 1391 fa2d 102b f0ed ef2f f102 01b7 e294 ecda 0021 fd83 f3b0 f27c f897 e860 f51e ef63 f1af ec5b f328 02c6 0078 0849 ec85
363a f541 ebe9 14ef 1322 eb8c f2a4 f963 ed45 f93a 1af3 12d6 faad ec40 fea3 15c5 f537 0e02 0d6e fcb4 0f7f 16e9 f190 f6b5 e6f0 088e 0708 0af7 04a8 fa7f 0733 f088 f048 e520 071e f92a fd74 1d8a 03f9 02d1 ee22 1e41 0f24 0886 e805 eeb0 1811 0e6b fe2c eff6 0238 1302 0df3 0d98 1af6 fee1 0fa9 061f f559 01b8 ff90 e5e6 ee1e e5e9
fc9d eac5 f832 f471 044f 163f 09ef 111e f2d6 f95a 0acf f51d 06f8 0a6d f177 0350 15ba 09ef 153d f462 f783 090f edbd 098f 1676 07c8 e9c2 eed1 0249 fb5f ea9d 0cf0 f08c 07c9 020d 0505 04ec fc36 01e2 10b6 0530 1449 06ef 0854 0ba8 ed49 0e2f 004e fcef 07e0 f254 08d2 f3d7 f863 f098 f905 f50d 0d82 f603 f2ad 0cfc 014e 13d0 00f4
fa65 1096 06d1 0a09 04a1 eff4 f550 042d f05a 0e1f eb95 0aea f0a1 efb8 f439 1427 fa99 f94f 05ed 0d5d 1215 062a 017c 1227 f143 0bab 0879 0f3b f626 0ecb eb79 1020 064a ec76 0152 ea3c f2a4 0167 eb98 145a ee05 ef6b f9f5 05d6 033e 0737 ef7a fd4b 15a7 0d6a f92f f976 0bbf 0cb2 f7f0 0704 f9b3 ef1f 0731 0cf4 fd3b f221 ed5b f850
f303 f3a8 fe51 e4fd fad9 f196 030c e81b f12a 04ea fa49 f400 00bb ed0b 0688 f197 0115 1234 ee5f f19b 0dcb 0616 0e64 0c9d 0985 127e 0726 ec50 f701 14a5 fe63 0c98 fcf7 ef8c 04b3 0657 f419 ff2d 0c23 f310 0fd0 e3ca 0baf f74c f30f 188d 0ee0 f3aa f904 0766 0aa4 f056 0ae6 e72b f723 0d4d 0150 0e2c 1009 11fa 089a f674 09de 0441
0b35 fa45 f7e4 0857 091d 00ab 0503 0c48 0ef8 0414 0dc5 ecdd f27e f480 f259 ff45 0edb 051d ebf1 eeb4 ebf6 f75f ff61 06b3 f28b faed 156b 0e98 f65b 0bd9 086f fa92 fd12 fcbd efd7 f563 f145 03a0 fa4e f7e0 f120 fd4c f4df f8da 01d7 efff 12a1 fef7 ebdc fa27 f664 0c32 fca6 0c95 1493 0f0e fe68 f72e 1144 f989 0941 0f9a fd8f 1227
f14c 0ddb f254 0e00 0d50 f2dd 0e33 f349 f714 f83e f483 026d 1519 ee61 fd3a ed2c 0568 13dc f76e f37b 04fd 0980 ece9 ed71 169e f7c8 0c8c f42c 1474 0aa4 fd5c 1487 eb5d ed38 02b0 f8a1 f4b4 f862 0fee ee12 ffa9 ec9e eb67 1195 10de 1162 0a95 ea79 0f43 0a25 f9b6 fb33 0879 f755 0c20 eda9 001c f541 fc53 f42d f96e ecdb 08ab 15b7
06dc 1018 f1fb f89d 1774 0c7b f4e1 fc0d f2de 03f9 e97d ee80 fc48 0989 ff0b 0e0d 1312 f7fe f303 fb37 fa07 f955 10f7 09fb e8c1 0bdf fa33 ecf8 120d eb41 0e81 0550 fdc7 f48f f93c 05cb 0e37 f725 0954 f917 0b43 1889 02a7 ed1a fdd5 fef3 1011 149b 0c37 fce6 f0b5 fa20 097f f99a ff9d 0d4b 0ad2 0b45 f8ce 01f5 fb04 f931 fae8 0dcc
0d26 09d7 f0e8 0e08 05c3 0cbb e808 1030 f678 0e8b 03d2 ea64 0484 ec8e eb39 0b50 f97b f87d f653 088b ebaf 043a 0317 e857 eda7 1033 f129 f595 f551 0393 e793 e77f 00c0 eafe 0f57 fd79 f83f 0ef0 f344 f2d0 e86b 0c71 0518 0a9f f5c8 0ddc ec91 14bf ee2f ed43 0642 14ac 1424 04be 1523 f4f2 0726 0ec2 f7c7 ef49 ffb9 1044 0e7d ef2b
0c95 fdb6 0572 042c ec42 135e 02a2 1666 05d7 f8f3 f94d fca1 f125 0c7e 01d4 fe12 029e 02da 14e8 105d 0ed0 09d4 0a49 eda5 0469 f5d4 0fbe 082d 1566 00c2 0c3a ed03 ee3c ec92 0872 02ab 08e1 076b 064c eb87 fe5a 0b5b 09ce f2df 1665 12c9 00ad eb85 f5b7 0cef fead 02cb f65b 08cd fcf9 0a4a 1641 f2dc ea90 ec42 0915 ff93 f5db ed05
f8f5 f767 030f 0eec 07f0 f65d 0a64 0b8b 024c 0102 f650 f79d 0fc7 128e e7ff 0bdf 03c4 08ef f940 1709 f98d fb7e 0701 069c f5c3 077b f0c1 fab0 f3a0 0ade 0d06 0396 0169 ef0d 0230 08c5 fb98 1355 fc5d fbd3 e9f4 e39f 028b 06bf 0c04 133c fec9 f21c 0747 1300 0390 1416 115f ffbf 00bc f664 0cab fd10 0bc1 08ec 0cc8 0ace f9de 0310
f341 026f 140a 004a f867 ebb8 f6e4 ebd5 1136 eeb0 f3c5 12c4 ebb4 05ee 068e 14d4 f2d3 f5a4 f280 fd05 f04f ea4e 0393 0521 ef79 0075 0882 fdf1 f054 0b9e ea7e 1185 f9b9 084d f6a9 f54b 1392 09a4 13ff 0408 0e9f f0fa 081e ec73 edcc 0953 02e9 fd8f 0bde ef40 1146 ea39 15dc faa1 0a2b f446 f997 01ef 09d7 ec8e 0668 fb26 1532 f6eb
06c8 143c 1200 f5a6 f0cb 021e 0471 f749 050e 0547 056d e92e 0857 f077 068d f8eb fbd6 038b e801 ff3a 10ee eea5 0a11 049d 0ca3 ed6a 03cf fb81 e90a 1008 0e6b eb4f f64e 1364 10fd ea50 facd 0501 1470 0643 eb9d f08a 1170 0804 fcfd f5c1 fc27 0815 eb66 0bf5 162b fd1c f7e8 121d 0740 ee69 e974 0690 f1ab f548 eb5c f792 edc0 01c4
dd16 f537 0b57 0323 f388 f3e2 faa9 0d75 f93e 0b80 db92 0336 e362 0946 f36a f93d 13a3 0067 ef1b 164a f3fd 151a fb42 12b4 00d8 ec32 04dc 11a2 057c e5ff fce9 3e88 0222 f403 092b 1298 efd3 f6ca 0c0d 098a eaae fb42 1a06 0e1e feae fd3b f4b2 0e2e 2034 0943 16b5 ff41 0545 eb78 0cc2 2083 1d9e 00fd 06ad f6b0 02c6 e7f8 04fc fd77
f384 0ea6 0dc1 1456 ede7 eaa5 0274 011e 081d e9b5 1667 ff57 0e1f ea43 052a 002e 02bf 04e4 0825 f5ac fb5c f702 0102 07a7 f888 012b ea2f 0984 f60a 15c6 ef23 00c9 f676 fc4e ebd7 0426 f761 f33a fe3b 1173 ed92 0768 048c f294 ecf7 f018 fc0d 12b0 fcf2 04ac 11c3 f86f ed04 f7e6 03f6 1403 ee26 ed4f 0032 ef76 ec99 004c 0156 10ac
f4c8 09cb 1626 e897 f1b6 ee9e 01e4 f3df fd95 f9d2 e78e 041d 15b3 0b7c 1429 0131 ffc0 0522 0db7 fac7 ea6b 0cf4 fe0c 0cf3 f040 0bd3 00af eda4 035a ef46 f8c0 0b14 f0e3 0aa4 0cc8 ee58 ec7f 057e 0dfe 1431 fe7f fd25 12aa e9f9 169f f0b7 fe11 eee4 0bb3 f7e5 e8ba f124 f429 ed0b 060d 044e 113e 052c 06a1 0cec 0e09 f699 087c fbb1
0fc2 fac6 fcf3 fccf 14f6 eee2 165c 0fe4 0a42 fdf1 0499 eb06 fc4a ef70 f8e2 15ba 0211 0dcd 0b9b fb4e ffc4 13f2 f64d 0d92 060a 02e7 0334 ffd0 f675 12fb 0fff ef32 fc2a fa61 f4de 0a05 f7f7 f5f2 061e 0594 0dcc fd4e fe0b faf0 f701 075e fc03 1573 ee9a f2b6 0c5c ec22 f5b3 f776 0199 07ba 0d6b f8d1 fe74 ea25 f02b fa72 f3cc 108a
0cf1 fd43 0738 f456 04d0 05e6 f448 0fca f20e 0e54 f79e fe47 e5da ec91 0e21 f863 0634 0df3 117b f6e8 fe3c fb05 ee4a 043a 0fa8 f194 f7ea 062a 0898 f7cb f526 ec7b fc37 f5f5 ed31 ff4a 0fee 0826 ecac fb62 0cd9 f953 0512 0e31 03ff fc6a 0e01 0599 ff70 fb6c 0b0d 0a2a 1376 0041 0a94 f5e1 05a6 0010 ea81 eef6 f952 f985 047b 107e
0d51 ef71 0516 0f6c 0d2d 006b f613 0486 04d9 000a 070c 14d2 f8cb 0f26 00c9 f140 fa35 f307 09e4 f0f4 0ec6 1362 f7df fd04 ed8b f4fb f0de 084d 0381 1652 0594 0ff0 fd48 ebba 090e ea92 ff71 f2ee 00d6 0db6 127b 0fe4 ec61 1167 fc4e 1218 1688 efaa ea01 0d05 ec02 01cb 1210 1039 0503 f029 09fc 0609 ed36 010c 00e9 f605 f78c f2dc
f3ff fa8d fc97 0716 fdef ec13 eeb7 eff5 e9f6 06ac ef57 100c 1694 fb22 00d8 169d ec00 028e f284 00ac eab6 0334 1587 0ab1 12a6 029d 09dc fa62 0b00 edbe 0b2b 09ac 0714 ea9e 15f9 0d7c 00ed 0895 1292 f27d f4a1 0a3a 0f61 00ad 132a f4a2 fef8 0437 114c e9fb f078 0cb7 fb2b 0448 fdf2 f5a3 eb85 eb37 ff7f f8e0 ef91 0681 0d76 ffd9
f8d9 f9f2 db95 1f34 1989 0876 e8b4 142e fe42 1757 0704 0c1a 18c9 f92e ffa4 020e fb65 0f0e f9bf f9ac ec82 0fbc f309 0784 f329 0740 0561 f78e 0f68 f638 eee0 efcc fedf 0bbf 083b 0eb3 ed17 1205 0cad 06c6 fb3e 1b74 1212 f2c0 feff 0f28 1240 eb0f 11f1 03ea f3b7 ee01 0d57 0859 fac6 f6a0 1383 fd6e 1063 16a7 00b1 fda2 fec2 ea14
0e99 f610 f254 00b0 f32d eb26 1405 f17f f1d2 02e5 0563 142c 0195 0a9b 073a f19c f9d8 0a58 ecd9 f1f1 f03d f8f6 0e94 07f8 0b7e ebdf f89f 1285 141e f8c3 fd7b 0c53 ec8b fbb2 f8f6 0314 04ba 0d61 f33e fea2 ea51 ff87 ef3c f211 ea07 f3ef 0b9d 0257 03ef f7e3 1675 ee12 f4f7 f208 13e4 fa4d f85d f0b2 08e2 f3ac f79f f3fd 0b2b f332
f9fe f15b 1412 f0bd eadd 0a4b 083d fdfc f792 f8f4 ec2f f0c1 f866 ef7d eebc 098a ed42 08ed f62a 0093 ecce f796 1224 f53e fd13 f251 f851 0f4e f3bf f323 f6cd 165d 096c 04f5 05ac eb3d 04b9 043a f24e 0007 0e72 070a 061e 0094 12f2 0a2f 14d6 f926 0969 0f67 f63e 04e4 ea7a f2d0 0f85 03b9 ffb2 0c3b f3ee 047a ed4a 066e eb67 f551
1711 faf0 12e4 01ea 025e ed15 ed9a ec09 110b 0d38 f75a f536 143b f300 ea49 1049 f97b 0d0a f738 fe32 067d fe87 0aa0 ebb5 ff7c 00ed 141b ebd8 00ec 10c4 fe5d d5c6 f180 039e 00a6 1376 f344 ee74 f362 04d9 ed91 f661 008d ef49 11e9 0a5f 04f1 f7af fe9f eca1 053e 1eda 0d70 fb62 0dde f2fd 0081 0372 ef0d fcb9 fd30 edc4 0a28 12b6
fc95 0dc6 02ad 07d1 0ac0 e73f 13a5 01cc 0558 0de2 019b f461 fdb5 0f55 f0d2 03f0 f61b ef8b 01d2 f29b 1083 f0e1 f3dd 1036 f3a9 11f5 0803 0b6e 01d2 f8a5 e963 f173 f0a1 f185 f35e 0b23 f419 fe78 ec84 ff54 f345 eb7e f62b f442 0e86 f4e3 116e e446 f611 fdf5 06ed f60d f97f edb2 0844 0e50 f7b8 f507 ef99 fad9 0073 0eed 120c f578
0a27 f17c f31a 0d43 19b0 0da0 0db3 f509 131c 0487 019c 0644 01bc ec00 0b4c eddc f651 e918 03a1 1242 1065 0d38 fb1f f53e fd28 1730 ecd1 01dd 0723 0b5e 0f96 f298 edc0 127a 122f ec22 fff0 ffec 06e0 f0fa fab6 f02d 1559 f540 0214 f6fd 02e2 fe47 f755 0a26 f26c f2c1 ee05 faac f414 ff2d 1147 e9e4 10ff 13d5 fd21 f3d7 07a3 0eea
0ad8 0323 fd04 0537 e869 0100 fa11 ebe0 09e8 092f f39b ea0b f3ae f4f3 f2d5 f158 011e f029 f272 f3f5 0b44 f234 fd56 ee53 f5ec e8fe 05e6 0e00 0b1b 0c37 093a 0137 107e 0418 fb1e f90a f69c 15be 1381 f545 efca 1651 f4ff 0928 f19c fe7c 01c0 e604 0450 0760 116d 050f f4c0 f7ac faa5 16b8 f8c1 04e3 0865 e78e f98d 0fe8 ec4c 1212
02f0 01d9 17d7 fc1c e179 e865 e8be 08c0 08e0 f0bd e821 f67a f0e6 ed1b e6d1 fbfa eb2d 1ed6 0d07 0f08 1527 e7b1 1d82 eb70 0f2b fb45 1447 fbe5 12c7 21dc edee f06b 0d20 17de e02f f527 2c1c ee91 ec34 f2de f33d 0fec e438 fcfb e6d6 27a8 186e 0937 ee7e 19b7 ff5f 0be3 2884 042f 006a e66c e63c e966 ed19 f0f4 fb15 0b21 1180 347e
edec 09c0 edcf ecea 089c e6ba 1227 ff99 edec 098e f593 ff0c 0133 0479 08c3 eec1 0b4d f54d fed9 039b 031a f981 f4d3 fb0a ef5d 0ae4 04f7 0557 ea5f fdbe 1126 0fe3 f09c 02da eabb efa9 18a0 07b5 f109 f408 0d3c 0bf7 0acd ffb3 ee98 03ef e875 ecd8 f1e8 e7d9 1a2f e270 0e9d f9d3 eb2d 1afb 005f e943 eb89 06e0 e6dd 11ed fc55 075c
0a48 fbfd 0580 09b5 030b dff9 f880 e8e4 eb18 fb17 14ae ff3d 041d f116 1015 018c 03cc f8f5 f87d 05d5 0bef 063d 0727 0d75 f03d edbc f0e5 e73a ecbe 0570 e55e fbff 047b e8f2 e531 ef45 16b1 0582 f343 fb29 f47b fd62 ef4b ef9e eea6 fd8d 0220 f8f4 1145 fbff 0c53 ead1 0a1c e7b9 073e fa25 0344 ea03 f356 ebb5 f9a8 031f f90d fcee
0a82 f501 027c 0921 0377 f421 0007 132f 01f6 0ab8 fdc6 093c fb57 0e0b f739 ecfe ec7a 0a83 eecb 049e e784 0eed f50f 0152 f5cf f687 f5cd 0916 0b54 0104 0d41 fe8c fd74 1252 ffdb 0ca5 0a7d eff3 0622 0869 0a71 073c f896 ebba ffc5 fdf6 ec0a fa30 ed79 fbb4 f496 fd86 fe00 f3ea fe7d 0dc0 ef4d f6ad f8f3 f699 0cc7 0dd4 fe2a 0c9a
f3f7 efe1 3126 c167 dbaf 0cd2 02df 0207 0c42 ee3d d6ff 07fe 2919 1d6a e266 026f 1803 256f 051a 09a1 ed50 0b7d eef9 eaf0 f1dd 03e4 16cf ebbf 25e0 34af ff28 033b 0fc4 301b f34b eb24 1988 f28f e4b3 125d e3c0 fcc5 f6bc f1cf f8d8 53d6 2b3a 13b2 fba8 536c 0e04 d41f 1e0a e83e eaa6 0678 03aa e4cd ef14 eba8 f808 0fb3 04ae 0dca
0f2a f4ac 0cd6 ef91 ffda 0ab2 0374 1373 1371 039c efb8 f1dc ed4b 10a0 f232 f2e4 fb21 084f 08a3 f407 ea7a 0ea6 f81e 0666 f32a ea64 0fe9 0836 0cf2 f886 ff0d 0131 f488 025b f317 06f2 f9e6 ff00 0009 1456 ee1c f869 e973 e958 f65a eeb3 fa91 1239 0177 f935 021b 0eff 083a e683 e757 fd40 f1cf 0b17 ece2 ec51 0780 f9b3 0af2 fb13
ff54 0498 0aea fec2 143a 0c0b feb7 08d3 0976 ef14 00b1 073f fdb5 0d52 f15c 08c6 f74d f57f e787 f352 0905 0700 0aa2 ee8c 0cd6 01be fbe9 eb2e 04d3 07f5 0977 0d99 07eb fee0 f239 04a6 f187 0a50 0ca3 fcab f25f fcf2 e9b6 0716 ecfa 0f84 0544 f180 0a32 fd06 eb54 fd33 0b6b ec58 fdea ff13 0ec6 f6e8 082c f047 f4f3 0836 0bb5 0d62
f701 0a16 fb48 0f79 0ec4 0e34 089d fa9d 1281 ed2f f43d ff89 04c5 ef30 0e31 148a f56f f068 f332 ec0d 02b5 fb0a ff7b fc35 0bf5 056f f2de ee2d f1b2 12d2 066e fca4 faef fc66 e9f5 07fd ee75 1499 ed24 f760 0f9b f741 1014 fef2 02af ee56 fdee 0fa2 0baf f04c 0e9d 0b71 03ff ea14 f79b e963 f831 14f1 0d55 1400 0a95 fb79 f4e8 f099
e7ae ee58 1485 0042 0509 06e3 1a97 fc4f 0bf2 0d5b fa85 ef4d f540 f182 0a5f ffce 0150 0acf fd4b ef6b 0447 f134 055c 0523 0c8e f3aa 0248 0a78 fb76 1131 ffdf 2118 f148 ffbb 0950 fdfd f7fe 17bb 02a5 e66d f5ca 03d0 f391 f2b6 0735 ffbb 0388 f378 0444 e15f 004a d3ac ea50 10fb fb9f 0732 1544 01c5 f441 e3c5 08cd 06f2 0bb3 fc2a
ef6f 1060 00b5 eacd 099f 0031 2b63 fea7 0ba4 efc5 eb5b e8f6 f7da efdb f810 f11b ecd6 ff35 0886 f853 f695 03b8 181b 0afa f5d6 e486 fc88 0337 eb72 eef5 eccb 26ed ff3c f003 ed37 0e0b 0833 f66f fea5 f2a4 eea1 0a69 11bb 11d5 f4b8 eddb fa22 08b8 ee29 0464 1f9c e3e4 f270 0459 fcf3 18f1 ebab ff07 fba1 0dc6 e29a 0e49 0911 028a
f507 ef70 fe7c f1a0 0b89 f13e 069b f8dc 033c fde7 eb20 fe0a 0243 f995 fff6 fb25 f23b 0a01 ff01 fd60 0659 f99d 0d44 e9fb 080a facf f08a ec89 faae ee84 f7ce f99a 0c60 f716 febd eb6c f811 1129 0978 0c8c 0496 0596 fc3c ed45 eb65 0009 f010 f882 f506 e8ae 0ee3 ef73 f39e fa47 0e40 0223 ea07 f6cc 001d 122a 0ced 03f6 017d 0983
0e09 ff77 0141 f5d1 f467 fb8f 10a2 0d20 fc8f 0654 193f 0710 f3a2 f07b f2f5 eb27 039b 0c28 fcc1 06b6 07d0 fb64 f0ed f4b9 0ffb 07cd 0136 f96a 00b8 f66e ff77 fe97 02c8 10b9 f8ac 08f2 0cab ec18 f5d3 ef88 f4fe f599 fb91 e7c4 ea91 0b0c 1314 fca7 f1da f1cd 013e fd3a 0666 0708 f990 f209 078b f814 fc3d fa2c 0b9a 0397 e822 f11d
02b5 fa14 f3d0 071d 05bc 0c12 f72f fbfd 05a0 f74d 0728 f0ac eeb2 0cb4 06ec e8e9 0df0 e8e3 fa93 1755 e83d 0f73 faed f51d 11c9 f8ff f6e3 0b6e f48b e09f f4db 00bd 0479 08ed 02e2 ebd5 e531 f751 12e7 f4a4 e94f f54e ec05 03b2 01d9 f79a f1ad f8d7 11ac 043f fd46 fa2b 04db fce3 f64e 0fcb fa0e 02e4 fb16 11ac 0790 ee88 080c e42c
edf9 fed8 0a14 133b 12c5 ed17 0b1c 06ed 01c8 fd52 e9be f13b 0ae3 0ff2 f57b ff2e 13fd 1611 f151 ebde ff36 f7ea f456 ef8f fc39 09f5 f2d5 0f8f 01bb f451 08e8 fc45 f412 fad5 f5ee 102c 0afd f3d5 1419 0550 0608 0709 086c 10d1 0eb1 08f2 ff45 f414 0c86 1557 ebc6 fb6f fe84 1287 f2ff 0677 105d fd0b 1137 ea16 0acf 0bb8 0b7d 0a17
faec 00c2 02a0 fd85 fe34 0138 1644 106e 1758 f013 0901 0845 ef77 04cd fbf4 12d1 10fa 1042 fac7 0a3c 0a46 042b 086f 0430 09b0 0e62 07e5 0713 0425 07db 0da9 fd20 f163 ea70 fd6a 0ffe 077d fe67 0419 f8f3 f6f6 0416 1094 10d8 04c0 f5bb 1436 eb6d f4fc 098e 122f 05ea ef8b 13a0 0a98 faa6 f81d f456 0fe6 ff6a 12b6 ea38 fe20 0ebf
139f ede0 fc3c eb56 0e8a e9c5 f027 eb6a eb20 13b7 123d fb16 fb4e f3b0 ef31 0adf ec60 02ff 0681 f871 e9af 1317 ebb6 0918 0cbf 08fd 12da 06c8 0545 1467 0b8b 1035 f22b fd71 1533 fe36 ed15 0241 fd31 ff7e 07f3 1556 1032 167a f9b2 eba0 f8cb 0904 0523 0ce5 f102 ec76 f343 0515 f40d 0173 04c5 f7c8 e976 0316 f26d 12c3 e9b9 1650
f946 ec07 016d 0963 13c7 fdb9 1041 032d 0ed4 0852 f9c6 f113 f69d e908 fc1a f577 ef0b e8ad e7bb f9e8 128e f246 056f eb02 0e8b f6db f328 ef38 fde8 0742 f634 f55d fc56 f251 f301 ee20 fbc2 f32a fc97 1191 0dab fc9e efef 0392 ee84 ff05 07cb e4df f89d 109c 08cb 019c 0108 024e ee0d 0f21 02c7 f305 07a9 12c8 00cf fab4 0052 0432
f4c4 0bba 04fc 02ca f855 e4ac ee0f 1164 f4c8 ed58 fb27 029a facd 01f3 e9e5 e7af f47d 040a 021f fb6b 0ad6 e938 15c1 081d 101a 14a9 f4e7 f3aa 10f3 ea56 fe11 f2f9 1439 099d 06d1 08f3 0324 ed3a f7da fb31 ec5d 0b13 14ee fcfe 0226 f887 1009 0476 0233 0d0c fe7d 040a 12a3 ec7a 044e 01b2 00ef fa3b eec9 081e 130b eefe ed91 f181
169d 04cb f1a7 0ff8 fdf0 eb22 1407 f084 edea fc71 0e3b 0014 0691 0d0f 09c8 fcff ff0b fb4e 0646 f6aa 1591 eda6 0742 f92b 0af9 f89d f195 fc27 f65f ee15 1476 0d3f f422 06af ee75 1086 efea 05b5 f00a faf6 ffe9 02f2 f1d2 13c5 eced f82e fe2d fd5e 137a fc73 09ef f5a4 f826 fe28 f1bc 078c 1351 10f3 fd19 f35a 0a3f f5ef f65a fd29
011f eac7 f567 07da 1197 02c2 fa66 0f74 f277 f466 01dd e831 0f20 eb0e e8f4 f418 00f0 0bea f81c 14ae 031f f37f ffd7 f9d2 f149 0a1a f418 1123 0ddd f1c0 13df 0a72 0416 ec3b f268 10f6 0111 1998 f31a 08be fdc7 102a 00b7 f0c7 f326 0b23 f7cd 0022 1043 e9e7 1939 0e9b 01fb 0e17 103e f547 f665 ff8e 0531 ec80 0d89 f5d6 0367 0a25
0bfd fc32 0e64 f78d 067a f9f5 ed6e e834 ebe3 0353 f2c8 fb3e ed02 01cd f5b3 f4f7 e848 0d80 1294 159b 1164 11df 0712 fe59 09b0 f22d 053e 0601 fccb f0ac f0f4 fbc0 fb5c 02be ee70 fa87 ece9 0772 ff9d 0b81 12cf 0802 fa71 fc16 f1a0 0167 ffb4 eac3 ff1f 13db f7bf f30b 006c ff36 01ab f989 08ad f5ac fc5d eb5c 092e eb2c 0b65 fbe8
f91c efbc ead3 f958 f21b 0a6c 11f6 eaa4 f285 f494 eacb f760 e5ed fa93 087f 0288 037f 0c72 10aa 07ce fae9 faaf 04ab f4d9 0eed 034e 1276 0c01 000e fd68 e861 091e 0400 0467 1021 eee0 0172 ff64 015c 0f6a fec2 fc76 05e8 035c 08f1 00a3 01f5 ea17 fcb2 0983 0b56 0ce7 ef8f 0946 f04a ff72 0ebb 1152 eb8b 01ba efb5 e717 f9b7 fd42
f5d9 0974 0c8e 0476 0ae1 0f06 f8a1 f65a fea5 ee5b f114 0cdf f2ac 1046 f1e4 edfb 0632 0e8b 098d f2b6 0e65 0e32 0b48 0b25 f880 14ad ed7d 0d99 e956 0cef f029 0337 e9b0 03fc 046b ef48 0680 f9fe eedf f24e f268 fd20 1525 ebbd f6f1 e995 0915 f4b4 f3db 1356 0997 12a3 0bb9 fdcb f404 006e 03b4 efab 059d ef44 ef08 f66b 094d 0aea
f575 0cd1 0776 0cd0 0d54 0254 ed3b f19c f56c f3b5 1bfe 0f8e f2e0 fdff 09cc 06c1 f191 f95b ea9e 09c9 f01e f7f6 074c 1002 0509 0d35 0890 009e f88b 1000 0446 f43e 0057 02e0 fdcf eef5 ee5b 071a 13d1 01cc ea8e e412 f369 ec31 03e3 eda3 f6eb 1133 ed32 ed1c 06b3 f5c9 eff3 f03a f481 01cc 0afb f843 fbb8 fab1 e8cb e6c3 ecfe eef2
eb2e ee2a 01f5 f631 f68a f7a2 f0d9 0558 0804 ec40 e91c f5e6 0026 0f84 10cc 0fce fc62 066d 0901 0047 f631 edf6 e9de feed 09cf fc52 fd13 0c7d eeb0 0d1c ed5e f74c 0319 ecb0 0a5a fdc1 e741 fe03 fed5 ee28 07ac 29e7 0076 043c 0be4 fc0e edd0 11ff f11a f983 fa50 f875 0c34 f8a4 0f9f 10c0 fdc9 ed4a f53c 0962 0efe 0452 0ccd e2fd
eb4b edd4 0df8 0ea0 0a3a 01ff f0a8 ea0e 008b 0b46 fc22 f318 13da eeb0 f798 0063 03fa f3dd f8f2 fd52 f12c 01e0 0241 f231 0b74 04bc eadd fc93 09cd 0e2e f346 0ca1 03a6 00c7 0af0 0ce6 0532 ff4f edbd eb51 0532 00c1 f7c9 08d2 f580 f2b0 f37b fd0a eb75 f36e fd0d 0aad 01fc 0f27 1413 fe4d 0735 0dab 0f03 f4a3 f5b2 0b80 0171 ffb6
12eb ee76 ffab fdf9 1284 0a81 0e36 08c2 02b6 02c1 ec25 ee47 0545 f0a4 fdad 0203 f898 ecdf f138 f988 ff49 f11e ef82 0bf9 eb11 f3e6 00bd f6d2 f435 f21f 037e f53d f8de f7bb eead 07b8 fcff 0e99 09fc ffdd fa0a 1168 efaa f60b fba1 ffdb 0b2d 053e f6b8 ea5e 04d6 fb96 13bd 0a3c 1402 1300 143d f0ee eb71 1469 025c eb69 05d3 f114
11d8 0938 fc98 f788 f52a 0cf6 1028 f79b 0b0a 0c11 fe0e eb61 e802 ee62 f837 045f 029d 0aea 0764 ff05 faec f39a ffeb 0a48 ff0b f995 ef33 f353 f493 f410 0caa f9fe e8f5 eb54 fa17 04cc 095d 0b2b 043c e9f9 f58b 0d37 f3aa ffad 1061 f6c4 fd75 e95f 0a91 073e 060f fc56 f791 06af f338 0926 117d ffb8 0785 1460 f5cd 13a7 01d1 fef2
0b29 fe52 ee8a 105f e9e8 ea84 00a7 f27c 1009 f4fe ed02 f9e5 0d4e 1313 14e4 01c2 edfa 15e7 0bd5 01c4 0d18 ff03 11c8 f518 0b8b 1152 faae 03d8 083d 08e1 0855 11de 14dd 0a34 098a 0adb 05ff f523 0815 0701 ef26 129f 0f99 097b f93d 13ef 0624 018b f073 0639 f9ef 1012 ea17 06db fa7b 03f6 f30c 0ed1 ecd3 efe5 f142 f4c0 1071 0796
efd5 ec32 da58 fbb9 1035 f5ca 1288 0639 ee76 0464 f8ad f479 03bb f69c dc1b ec8c 0511 eba5 fd0e 0593 0213 f408 1b47 0f8a e494 f4c5 f4eb 1003 02d9 e5c0 064d f863 0406 ef93 e839 0093 0ebc feb7 fabc e822 eb97 f5f1 107c ead9 08f3 fc09 ead3 e32a e65c e6de 0777 e9ac eca0 fdfa 012c 09f0 0dd6 0cc6 e738 f22b f0f4 f820 f9ca f567
f5aa 0629 04e7 f341 0599 f3d8 00f2 0982 0926 0366 0f3f f3e9 1133 0b66 f230 0163 f7dd 09a4 094a 1111 f9ca 0d06 08a3 1225 097e 05ee f2bf ec12 11a2 05e4 1444 11cf fdf8 0541 f5ba fdab f79e fb8b f1ed f84f f004 ed14 fbf4 ecde 0fb4 0077 fcec 12f9 133f 0f78 15e8 0e83 107f f714 00f9 f786 f7fe 0009 f704 14de 0631 13f0 020b fe87
ea87 081b 064a 0a7b 0509 f1ca 00d3 e96d ffc1 0b3c 05dd 1612 f8e8 f890 fcf6 0288 fd33 f1ae eef3 08d4 15c6 18ba edaf 06f9 0e28 0c88 05ed 0905 e890 e140 02bf 0c12 fe95 fcc2 fae8 036b c2e0 1f4f 0404 0445 ec09 1ca8 0122 01fa 0702 de7c e47e eff4 023d e64b 132e ffe3 f0f5 f7e9 ea85 1135 169d fe33 03e1 f6b0 0dc9 f2b8 03b9 fb3b
0b38 ee03 e41f 0033 06ab 0da1 f4aa e7ee ff5d fbbc 053b fdb7 fb72 0f08 ecb4 0c47 f36c f4dd f278 fa0f fe29 0bd9 efb2 17bc 0a10 fb1d faa0 feb3 f1e4 eae6 0639 08d9 f169 f234 0471 0b7e dce0 f9b5 07a4 f4cf 180a eb74 071f eac7 f305 f3ac f935 eb45 ee59 0ac0 021a 0bd5 fd07 f101 fe43 f881 f49a eb8b 0b24 f315 f41f 07b7 fde2 e2ba
1409 f609 3494 ce69 cbc2 0a1d f529 06cc fb2c 02c5 f53a 0eb1 e89d f059 2037 f3a5 0f6d 1914 fc89 1471 1743 ff3e 09ae d765 0c9b f552 ed08 067e 2cea 55eb 0348 e670 f650 0f07 e598 0390 09ff f7fa ea8a 22db e39a f9f0 0294 11a4 fd37 311c 1bce 046a e724 00e9 f020 032e 37b6 fb0f 09a7 e7a5 d313 f6ad ec4d 0614 0146 f79a 07c2 41ce
0140 12e9 11a5 f1bd ed7f 12c6 04fd 12d7 f7c7 fe9b 0b35 f99c fa3e 043e 169f 0c06 1615 164d 02bb faef 0fbb f401 f859 04b9 0bf3 f6e5 12b5 eb62 0756 fdde f989 0603 fac4 fb9b fe1a 0cfb fed5 facd 02f8 f99f 0547 024c f897 07ff 0f80 0746 f161 0755 098e f81e 1115 fe17 ee74 08cd fa23 f072 ef61 1525 027f f1e1 f761 141d 0c0d f2e0
0d11 12a7 f612 1380 0737 12af ee62 ff15 076e 077b faa3 084b 114c 05e6 fa26 ffba ee74 f525 116a ec25 11e1 f0c2 f4f1 0129 f76c efe3 089a fd67 f59c f7a8 ee3e 0f2f 0e28 0a54 0b3d f883 05c1 021b 0387 13a6 fed4 faae f7ec f5c5 feee 03cb ff9c 0322 f793 f8a8 078f f616 0d76 15dc 03ae ef43 f5bc f9f2 148f fbbd ee22 10f2 03d5 feb7
edce fd95 0b9c cd02 063d 0716 fc9d ff1d 1103 17b2 eb81 00e1 0d32 ef2f 1265 fb98 05cc 0338 0637 1b61 116e f4a5 1b5c f720 08fe 0806 f59b eef0 1260 257c 0b15 eb24 f603 f43a 00b7 ffb6 0162 0361 e5b5 12ed 0a5f ef61 1588 f2aa fade 266b 13c8 f2c1 effd 0ae1 0809 e23a 157d 0e50 e728 098b e810 11b7 fa3b ebdd ffca 087d 060d 0ec6
fd50 0425 edec eb5e eced fe32 0906 0b07 08e4 0452 fbfb 11c9 0f24 053d 13e1 f450 08c6 00d8 111a eb35 07c6 f3db 0dd5 fde3 0f5c 0da8 eb17 f0b3 13c6 f107 0059 fffa f106 1201 ed19 000c 0b65 0c49 ff6a f7f5 0d50 0fd4 11a3 01f8 03a7 0bc8 f15b 09e7 103b 04c5 093d 00d0 fb7b ef6a f57f f108 f549 fcf2 ec65 0692 107f 0106 f9d5 090f
0e49 01f0 f5a2 fb54 f842 006a 01e9 f9ff 01db f9b2 fc50 117c 1389 f77a 0209 0ba1 0041 f615 fd37 0e0b 0486 0d42 01d4 0b62 0610 eaae efd4 fcf0 f28d 02af ec87 f596 ea0a eec7 0e51 fb86 0272 034a 093b 03e4 05c1 f67a ea96 e9af 07a8 f695 02d7 ee8b 0535 133d 0a6c fdf7 077c 1673 0767 f4b1 ee3e f099 0b0d fc1b ea94 08ca 0886 fbcd
f7a3 0abc f6e5 006e f109 049c 070a f0cf fbc8 ebc4 0bf4 0a5b fd77 ff04 03b6 0641 0fdd fe65 e9a3 13e0 e914 eb6c ffa0 0bb7 10f2 efb7 0fc1 f27c 0854 0a85 ffdc 01a6 fcde ef79 1337 eadb 0d0a f7a6 f030 f4e9 058e fcde 0115 fa9d f907 0094 0d93 eb36 eb51 fc4d f85c 0c9a f016 0934 e794 019d fde5 0e5b fa90 14d5 f211 12db f7d0 fb3e
f2d8 1356 084d f9af f462 eaf4 ff2c fea3 0cea 05af e452 e636 15cb f688 e95c f5b2 ea8e ebac 0b20 f0c3 fc0e 12da 0d20 f4d9 f2df edcb f3fb 0878 07b4 0ff4 f370 e70a 0182 f05c 12a8 eb5d 061a fb42 f80d e81c e9e3 0285 0b9c f42d f6d4 0662 fccc f5a5 fffe f203 0908 126d 0b04 f0e8 09c5 feae ef95 0597 e9e4 f111 f5d1 eb83 ea4d 0fce
0e3f faeb 1904 dfea ea9e 0bc7 ef87 0b1c f749 0ca5 ef89 0c05 0e27 0b29 04fe fbde f960 eb68 eb37 fd10 ff45 ff01 10d2 1427 0e78 0c3a 05f8 0b89 0e1b 0ca8 fa04 0883 008a fec9 0302 eb87 1c6b f900 f81b f88c fbd7 f8a1 f0b2 0623 0d5b ee9d ed2d 04e6 12af 1776 0ac6 ec7e 022b f201 05f4 f255 e784 0fb4 f4d3 12c4 f0a7 e931 10f8 0cb7
edf9 ef91 f447 f9e9 0ace 1343 edc7 0a77 f730 0ced ee66 ec36 e97a fd89 f2da 0e3e eb62 fedd f3b5 10f4 11bf ec71 0b1d fec2 0d99 fdbf 02d2 0b3c 1623 f107 1544 ec51 010f 0a26 eff2 008c 0ef7 0cad 0814 025d eccd 0fc8 f343 effc 155e 03c8 f1a3 fb8b fab6 f007 122c f461 0d62 f315 0ac7 ec6a 0a40 05a3 f652 0a43 0baa 0bb5 ed5f 13fc
