fb7d 023b f5a4 f8f4 0682 eda1 ee0d 0964 ee20 e65b 09d0 f037 f593 09e0 0110 e2a3 115a 05db 05f6 09f9 ec4d 1942 27cf e0f7 e481 f488 104c 110c 06f1 f869 edaf f3f3
008e f772 1665 fe93 082b f79f 0623 f6a5 1964 ec50 0a23 1c78 0017 f57b 1c48 1dd4 0468 05d3 08af 14ce 19a5 e6db f1cb ec17 e506 e32f 1c62 11bb e2cc ea5a 16e7 0d1b
f4e3 f8a7 e880 de7f dd63 13a8 f56f 11e4 0924 125a 1fd8 ed2a 115a 107a 06ef 0d55 e747 02af f13f 1bb3 1c5c 0daa e33a 03cc f1c3 2606 1164 e091 12d0 f245 009c efb6
fb2f fbf6 e392 e81e ecfb da40 f0c6 f652 de98 0e4c f42a e4d0 f5c1 eff9 e9ab f283 105f 04b4 f646 e866 fa3e 0538 1473 d492 01f7 e82c e07a 0a21 f3fb fe39 ef6c efec
e356 e8fb 1356 e791 eec9 feb9 eed4 f451 f308 f9e1 f803 f19c fa33 f56b e8f8 ee5a 0ca6 03e7 fe09 f245 e407 00fa 0322 e67d f4aa f398 eb0f 044e f76e 0129 f7de e1a2
e524 08ef fc64 11b8 f3c9 1964 fc6b f0e1 e070 e875 00db eebd 06dd eb2e e9b6 14bf eaf3 18c4 e91f 1519 0385 0125 0f43 191d e35d 068c fb13 f5a4 12ec 01b4 f250 06be
ec39 07f9 1f60 076c fd11 f066 fa47 20e3 e85f f0fe ee48 0f17 0ef5 0818 e6d5 f5f6 07cd ffcf f7a9 0838 f055 f190 e49d f230 e4a6 ee51 f12f fe47 1b31 1d71 1b0e e02d
e101 ffe5 f765 ec5f 1762 1da0 ed2c 0840 f6eb f1bc 16c4 177d 16ee 0a6c e081 e84c 18af fdfa ead7 e08f 099e f2e5 e6f8 0d3a 1e82 f4ea f92a 1f7c e200 119f 06bf 1ce8
0e35 12c3 189b e737 e296 e3ed f904 07bc 0fc6 f751 eeec 06ce e804 1387 f994 1315 1c22 f391 009c 0132 ee17 0aa2 0940 124c e64a f7ab 15be ff72 f4e4 0cc9 e25f 1627
0b33 f4dd 196b 0d0c 1f41 039e e89c e377 0313 2067 e3b2 e318 14bb fbf7 08a8 ed38 0059 1178 ebd3 1648 e386 ea88 03a0 09ad 0a31 0189 fffd 09c1 f2ca 0521 efa8 e878
f274 0ab1 015c f2c1 0e06 0ef1 0cb0 f37f fe06 2913 fe43 e936 ee50 0914 111b 12f4 131a 0744 f6c4 f92d e989 07ea 1233 d880 f5c6 0a36 ef84 2594 0a1a eb22 eb74 f27d
e776 1aef f0d8 136e f2a9 e1eb 0e2e 0c7c fbbf 16ab f09a 0832 0984 e977 1f6d 05eb 0b3e 0142 fe6b e449 fdc1 1ef5 f0e2 1777 f0ee 180e 0454 f562 e2ec fd0a 161c 1608
1963 e698 1514 0267 135c e934 0502 0b9e 0f1b 2337 e771 0a9a 2515 0eba 2a25 f479 060c 032b 2d30 157b ed4f 08c8 16de dc47 0811 35b9 ff42 15ac 0625 fc84 1ecd 17ed
e6f5 f9c3 fff1 11af f735 f041 e393 2031 1754 e93d 1712 fad6 1c1b feef 1800 180f 0e24 e180 ee06 11e2 0305 02c4 0ae4 e3e3 f3f9 1eba efb1 f19f 0de9 fed6 fea8 e2fd
e4e3 fa85 e856 fa2e 0e73 082c 0c3a ece5 0a2a ec1b 00f6 0bb1 f38e e6de e6a8 ec74 e822 ef73 0fd2 115d 0761 1741 1de0 ee70 0ddf 19b8 09bd 0048 10e3 e6d4 ff81 f93f
fc8e ff89 f00e f6be de9e efae 0a8e f3a9 e04a 0e4b 133d e272 fc5b f438 1db5 0f97 0919 1985 04f3 e89b 0189 1ac5 19c9 100e f40e f7cd f652 1882 0f68 fa95 fdc4 064a
0a60 032b 1371 0e38 e49a 1c55 0bd5 06f7 e826 e550 0be3 090e 1271 f678 16f5 fd4a f863 e740 1e70 e677 0c4d e4f8 efc8 16a3 e9c3 f859 10a8 fc23 0241 14fd 016e 1814
eb30 039d e0d7 fc4d f8ad 14d9 11de f96b eb58 2189 f98a fa8c f514 f7fa f01c f33e fa15 ed34 1293 13e6 f2eb 0dfa 0278 fe85 f97f 0a40 067d efa8 ff90 ed9d f731 171b
0afb 141e f9e3 f52d e2de eb93 1488 fb19 0186 fe8d eeaa 13a1 127b 1162 e7e6 132e 06e6 f755 ea6f 0de6 ec00 1868 f39a 1862 0131 0989 fd1d edf6 0b06 f45e e463 ed6e
f015 e41b 1355 08df f89a e236 ebb1 fd05 fdd3 e7f7 02ce fcc3 0efb f9ed f927 dd7f 0977 006b 008e fa6d e5d1 08a9 05fc daa5 ed79 18cb e62b 1283 e05b fd66 f41c efc4
0931 e65e fad3 13a4 ee5b e7ad 0014 e751 e552 0888 134f 12fa 0d20 08d1 18ef 13ec 0219 edb0 0716 e430 e134 0b28 fcf0 e4ee 11e8 f49f f71d ec3a e449 129e 0979 ec11
ef15 fdd3 19ec 15b1 1aa9 fd17 1cc3 1af4 f3b8 f711 0381 18f3 1a05 e081 1404 1b25 111a 1715 faf3 0bf1 102e f0c9 f819 de34 0c7a e9ae e42b 1a47 f28b 1af1 0e15 1382
def1 0410 0462 e08d dcee e83c faff f2f1 eb01 e99c fc6b ec17 f7df df9d e669 dfc0 f012 f10a 0e25 f239 e78c 02d5 f7c2 fd92 e558 1132 e663 e5a1 e724 0a03 f5e2 e982
e7d3 e33f f2ce 0b34 e0cc e29d f69e f364 f2be e087 f07e 115f f9b6 09b0 05aa f1bf f432 f956 0666 e3ec e3ba e009 f9da 02f1 fd93 f438 f407 e3ea fe63 1787 f6ff 13b0
e069 0a89 ff03 156a e1e0 1039 1c7c 0977 f5a8 e684 09d9 1011 0b95 1395 f3ce 0d8a 02c4 009a 1aa4 f282 1063 fdb1 216e f36f e217 e7f7 1e1c eed5 0224 e80e fab3 f32a
f839 f85f 166b f4e4 f8ae f556 e1e7 e214 012a f9eb e75f e244 df80 0314 17c4 e700 ec42 1158 fdc0 09f9 0d21 07b8 0bae 11d0 e34b ecd6 e0bb 169b 1768 e04d e51a 0f1f
0437 edc0 f2fa f18e f992 0f2e 182e fe63 1b45 e01f 1a47 f5b8 fc4b eeba 1fe5 0ed2 e5ff 09eb feff fe4d e2da 129b 1c96 133c 09a0 fb1a 18f7 e95b dcdc 11cb ede3 e7c9
1009 0aad 08d6 1ce4 1784 ef74 fe7f f1bc f13a 196b 1dc4 1ab3 0fe1 e04d 016b f357 ea60 f83c 032d f18e 0762 f8be 1451 f319 0d4d f0cb 00aa e962 04a0 e6b1 12a5 154b
128e 0dee f012 e664 e573 12fa 1483 defb 098a f01c 0271 fb42 f221 e11c 0720 0818 e82e ed95 187c 13d6 e93a faf6 0e31 046b f8ba 1835 0844 ee0a 19bc e51b ecd8 0a25
031d 0ca3 eae7 0abb fbdb f82b 019b e627 13c2 f1f9 1712 0fb3 1a30 03f9 0ea9 de25 e487 e804 1f10 0c21 fc56 0932 fed4 10b1 f016 f664 f461 061d f48d e637 dfd6 f75e
0b21 011e 016e e75a 13c2 1a90 f544 0742 1595 1040 f31d f085 e7a0 131b fb5c 163b f47e 044b e060 e9af 02d4 0ef0 0edd f842 16e7 01c8 19a3 fb6b 1dcf f35c 11ba f598
f626 03ed 37c0 03de 028d fa21 fbae 0a48 007d fe31 e865 35bf f8a2 da88 09df 0ff7 3269 f518 eac9 e9a1 05b3 efb3 d047 e324 0d56 f2fa e6f8 e3ff ec29 36d5 0e92 0c36
e09f 1511 132a 0da9 edb3 f1fb fd24 2005 f7f4 117c 0cc0 1259 145b 1e4b 0432 1e0d 0ab9 1220 0556 ed54 f783 f292 018d 1b77 df92 1e13 ef47 f5c4 f6aa 1159 027d f712
e325 120f 0128 f318 087c eef0 f76d 16b3 f9b3 f847 19fd e112 03d5 07b6 1cd4 11c0 e8f5 ff25 157b 0426 e43d 0341 ee0f 0ea3 1927 f666 f34c eef5 f2c2 0eac eb8e f1f5
174f e997 1387 1380 e99b e078 0c64 07fe 0553 f792 e6f6 e4b0 0c24 16f5 1caa f92a 15b9 1c6a 1e2d e845 1a7b 0540 0667 e0d1 0e77 fa3c 077f f217 ed92 f236 ff91 05d4
e3d8 0df7 f142 152e 163b 1534 f80a f229 0b8b 1d86 f163 1524 eaf0 059f e911 008c 15f2 0303 11be fffe 1c22 0202 ebf3 058d f4cc f21a ffd4 13ab 180f 1d2f 078e f594
fc29 f093 d80e 0196 e5f5 e523 fe62 10a3 00ad 1da3 2426 0038 048e f84e 006e de10 f919 ea6c 12a4 f5b8 13ba ff66 09ab df7b e965 fd20 fc2d e543 ff46 e79f e2dd fe67
0c1b e665 06e6 1fb0 02cb 0dbe 01df f33c e65e fadb e5e0 18cd ed7c 17aa e9ea e00c 1841 e9e1 0b27 014a f16f e1b0 0353 e434 0e8a e702 098c feab e41d 130f 0113 16bd
03cf f92c ff98 0a26 ee57 033e f450 e25f 0112 e5b8 0a94 eafe e1d0 e268 f28e 0372 07f3 f873 e282 ef79 1325 0656 fe94 f9ff fde8 df6b 1aa5 0e11 00d2 ec99 e6c7 ee4c
f435 f4a2 f560 efba ebe8 ee22 e4f9 e97c 10bf 1cce f268 193a f940 1555 05a8 1c12 075b fac4 0f7b 19c2 ea27 0f5f 0dbf 028b 1521 1e7d ec8f 0a23 f1fd 0c61 0f15 fe0b
eeb8 0d54 18ab 08df e71a f464 1a22 f760 e08a 0949 e411 1b24 f6f7 16bd f5d3 e3a6 0957 e755 e0c7 f812 fdfc fb0e fb98 153e fbc2 e475 19bc 0850 021f 03e2 e62f f6a3
fb5f f032 17a4 1d80 0fe0 ddd9 2521 d6f0 e282 efad fa09 fc80 e8b7 1a82 f848 032f 1a57 0453 f80a 0310 f8c6 091e febf d92b 1ef7 e9e2 0c09 04f4 1893 ea38 05d6 ef73
e5de 100e 00f7 f1c8 12f5 fd1e e816 f001 0e5d 0a76 e895 e45f 120e f768 0861 0e70 eef8 017d 09e8 dee0 13dd 0d8c db74 fd97 e122 14be 08eb e53c e88a 0a65 fcea 0749
f97e f674 20bb 0ff3 0eac f5cc f711 e742 0855 ead6 202f 0013 fb20 e75f f88d ff82 e5c3 1d51 e1bc f303 dff5 fb4e 0918 f0df ec4c 022c 037c 1a1a 0935 f0cb 1595 175f
feb6 fc0c 13cf 18c4 f4de 1fea 1617 ee55 f0e0 1618 e4be 098a df17 ea94 1ad8 f824 ea40 1c64 fce7 0eb6 0c14 e35d 14ef e1aa eae0 005a fa6d 10f8 1ad5 f690 06dc f900
f6ff 1521 fca0 ddff 0f77 0a0a e4ba 09d1 f4b4 e958 ffa3 ff09 1194 ff43 25fe f714 d8b6 04b9 1d7e 190f f659 3292 e1d2 e1c2 1321 fd07 f5b3 e6f2 051c fd5e 134f 0fc8
de61 e4e6 06f3 0c13 f59f e126 1a48 e618 fb29 f6d9 178b 1942 fe1d f17e eeba 1b59 0a3c f1df 1f28 0827 0069 0c78 0cb7 eab1 1010 1c06 f25e ff0f 12c6 0118 ecf2 eb9f
ff02 1a6c e18a 28fc 0d19 e74d e740 0618 0479 eee4 e92e f974 e77c 1b03 fdcd 109f e8c7 fa59 013e 014a f3c8 0bc9 0dae fb8f 1444 194a 0531 1bce 13e5 f255 0f1b edd9
f40f ea3e 04c5 20a0 eefa e5d1 eba9 fe63 e902 0e1d 0b12 0646 f1c2 f7b1 eb5d ecd6 1778 fa01 f86d 1846 17e4 e1d6 0709 e8f3 e110 13d6 0e38 e505 ef1c 0061 0f5b fafe
ea5d 004a d5bb f714 eb3f 0a08 1821 1fec 19dd 0dfd 2d9d 1029 e528 0668 1c7f faf0 001d eb12 1a9e 1588 2596 228e e374 0bda ea1c 0efb 0036 e07b fe07 e92c 0fcc f429
dfc5 e1be 04d0 02b1 f44f f32b 0135 275b e2dc f318 f1dc ee6b f59e eb6d 0c34 034b 1167 db08 e2f3 00ad 156c 0c61 ea0b 0dca ecc5 05c7 f598 e3c5 ee91 ff71 fd76 0d42
0c11 fee5 fa79 06a9 154f 0806 f005 fe56 e292 e59d 113d 0acd f8ce fc01 12e1 eb11 15a8 1d0e ffdf f692 0877 21b7 33a8 e444 0605 011e def0 1a0c ea0e f57d ef27 e50a
114d f1fc de77 f68e db4e 03c0 0d95 0c55 183d e835 fd40 018a 0d37 e6a5 0be5 135c 0363 f556 20e2 0155 f006 183f 14e7 17f5 02f1 06e9 ea69 f19d f2da e9ab f6f2 106e
1874 0bc6 eb46 fb41 00d7 1e87 08ec e16c 0fc6 0cef 0155 150b 155f eaa5 15bb 0dfb 1cc0 151d ef9b f926 f809 f85c 04f5 1abf fae7 1994 1860 1e69 ea89 e461 fe9e 0905
e0e0 faaf 0cbd 1e5f f673 0659 115f 0ad5 062a 00b2 fd44 04f3 fba1 02a4 eeb5 0373 e3c5 e7f5 0c46 ec7a f8d5 f74e 2613 040a 0d39 05cc ec37 17bf 18ab 029d fe62 e60a
ecae 0896 0df3 1743 fe6a e872 05d2 00a9 026e efcc e0c3 08ad df2d 0922 f421 0fa6 0dd3 f3eb 0390 061e f628 ec17 d9fe df32 f5e2 de86 e891 e867 f547 1d2e e93c ef89
e4b8 f715 14ba ff86 e6c5 ea2c ef97 0230 e56e e37f f381 e6aa f9d2 e977 eb37 f1cd 04fa 0505 f5c0 0d3c 0347 f2fe 07f4 eafa ffdc 04df 003b f3ae fee9 fbde 127e 095b
f0ea e459 19ce 130f ea25 f992 ffb4 1620 ec94 1ca6 e02d f4a8 f6cf e888 15a2 18a9 1db7 07b7 f4be fdd9 05d9 f027 037f 1bb4 0c96 f921 1ad9 ede1 f866 0f5d e872 edab
00ab 0b68 f798 0393 e865 122d ec5f eda2 fc14 161e 001d 15c4 1683 1781 18be 178f f0c5 05c0 0067 f1ee e887 e697 1b56 ebd1 e936 0538 1dca e654 161a 1041 12fc 05f9
f15a 14b4 e74c f81b 1867 0515 e473 fa27 1233 ec52 fd87 e51b e624 fe99 e23d e3c1 e8d9 e80f 0e81 e394 090b 0b02 272f 0df5 011c ec30 0740 ed47 e7fd eea5 0420 e538
167c 0eb2 179e f57b fb8a 18c5 1857 ed3c ecab ee8a 1900 f39c dfcc 0567 0a7c 1034 e9b1 14bf df48 e6dc e842 12fe f245 e92f 00ba 1c27 08b2 fe92 1a15 039f f39d 0f15
e8b2 16a2 e8a4 084f f3af 05bf fd0c 165a ff21 f017 f3b1 159a e317 e42c f2ed 04a1 ea70 f181 102d 0b9b f1be 17f7 f408 13bf 1311 0d58 1dde ed9b 0344 ea2c f941 1d16
06cb fb98 e280 0127 e970 0e7d 02b0 17f1 0b1b 130d 07e1 0d32 f47a 1d24 06f0 0915 0523 08bc 102a fd96 e183 0619 e840 e532 1116 f721 0fbe 147c eca2 0c22 1a39 0466
f6ac e339 012c e71c 074a e3ca 0a21 164d e257 00e9 ea02 e6f6 1639 eba3 fb4d 17cb ce36 f3c5 100d fcb3 e4f3 127e fbf5 05f6 ede9 0c44 f499 e976 e94c 0686 147b f9c3
