e6 17 d4
fa 12 04
0b 15 0a
09 0a f0
f1 e9 dc
de 0d d1
1b cf 15
1b 24 24
f6 27 02
0b f6 07
d8 ce e1
d9 fd ec
ef ee f7
2e 27 f6
09 fa 28
ea f8 31
db de cd
22 f6 f9
ee e5 f3
e4 d1 fb
f6 dd 07
e2 d1 e3
e1 d5 da
ed 30 09
29 f0 e7
e9 e3 f1
25 d5 06
2c 15 15
05 06 ef
f2 14 08
ea 18 16
dc 2c d0
