fc
f6
fa
fe
fa
fc
f3
01
07
fe
fb
f5
f7
00
0c
f4
fb
f1
00
fe
07
fa
00
09
00
06
03
01
04
00
00
00
f7
00
ef
00
ff
ed
db
f4
00
f9
00
fb
f2
01
f2
00
e1
00
03
fb
f9
04
f7
eb
f4
fd
01
f7
00
00
fe
00
00
f9
f6
00
f6
00
f1
fe
00
fd
00
f5
00
00
fd
00
00
eb
08
fd
fd
eb
08
fc
f7
02
f5
f5
00
05
19
00
f1
08
00
ff
00
fc
f7
00
fc
fa
fc
f3
fb
02
f7
00
fd
00
17
ff
01
07
d0
00
00
00
00
00
f3
f1
ee
00
