fc3a
f604
f9ba
fe5b
f9c5
fb81
f2d6
00a5
072a
fdbb
fabd
f54b
f753
0000
0c1b
f3c4
fb19
f111
0000
fdc0
06d1
f977
0000
0962
0000
068d
0382
0127
03c1
0000
0000
0000
f6da
ffc2
eee1
0000
fec3
ec68
dacf
f3f3
0000
f948
0000
fb58
f186
0116
f1bf
0000
e125
0000
02ce
fabd
f917
03b3
f6a9
eaf8
f371
fd34
017c
f738
0000
0000
fdd4
0000
0000
f92d
f63d
0000
f605
0000
f0a1
fe79
0000
fd4a
0000
f489
0000
0000
fd71
0000
0000
ea59
081c
fce0
fd73
eb55
07d1
fbb1
f6b9
01a6
f53f
f4e1
0000
0498
1902
004f
f131
07af
0000
feed
0000
fc35
f6f1
0000
fbb6
fa33
fb94
f310
fab6
01c8
f6dc
0000
fd46
0000
16cc
ff3a
00ab
06fb
cfca
0000
0000
ffa2
0000
0000
f2e9
f11a
ee46
0000
