fc 02 f6 f9 06 ee ee 09 ee e7 0a f0 f6 0a 01 e3 11 06 06 0a ec 19 27 e1 e5 f5 10 11 07 f8 ee f4
01 f8 16 ff 08 f8 06 f7 19 ec 0a 1c 00 f6 1c 1e 04 06 09 15 19 e7 f2 ec e5 e3 1c 12 e3 eb 17 0d
f5 f9 e9 df de 14 f6 12 09 12 20 ed 11 10 07 0d e7 03 f1 1b 1c 0e e3 04 f2 26 11 e1 13 f2 01 f0
fb fc e4 e8 ed db f1 f6 df 0e f4 e5 f6 f0 ea f3 10 05 f6 e9 fa 05 14 d5 02 e8 e1 0a f4 fe f0 f0
e4 e9 13 e8 ef ff ef f4 f3 fa f8 f2 fa f5 e9 ee 0d 04 fe f2 e4 01 03 e7 f5 f4 eb 04 f7 01 f8 e2
e5 09 fc 12 f4 19 fc f1 e1 e9 01 ef 07 eb ea 15 eb 19 e9 15 03 01 0f 19 e4 06 fb f6 13 02 f2 07
ec 08 1f 07 fd f1 fa 21 e9 f1 ee 0f 0f 08 e7 f6 08 00 f8 08 f0 f2 e5 f2 e5 ee f1 fe 1b 1d 1b e0
e1 00 f7 ed 17 1d ed 08 f7 f2 17 17 17 0a e1 e8 18 fe eb e1 0a f3 e7 0d 1e f5 f9 1f e2 11 07 1d
0e 13 18 e7 e3 e4 f9 08 10 f7 ef 07 e8 13 fa 13 1c f4 01 01 ee 0b 09 12 e6 f8 16 ff f5 0d e3 16
0b f5 19 0d 1f 04 e9 e4 03 20 e4 e3 15 fc 09 ed 00 11 ec 16 e4 eb 04 0a 0a 02 00 0a f3 05 f0 e9
f3 0b 01 f3 0e 0f 0d f4 fe 29 fe e9 ee 09 11 13 13 07 f7 f9 ea 08 12 d9 f6 0a f0 25 0a eb ec f3
e8 1b f1 13 f3 e2 0e 0c fc 16 f1 08 09 ea 1f 06 0b 01 fe e5 fe 1f f1 17 f1 18 04 f5 e3 fd 16 16
19 e7 15 02 13 e9 05 0c 0f 23 e8 0b 25 0f 2a f5 06 03 2d 15 ed 09 17 dd 08 35 ff 16 06 fd 1f 18
e7 fa 00 12 f7 f0 e4 20 17 e9 17 fb 1c ff 18 18 0e e2 ee 12 03 03 0b e4 f4 1e f0 f2 0e ff ff e3
e5 fb e9 fa 0e 08 0c ed 0a ec 01 0c f4 e7 e7 ed e8 f0 10 11 07 17 1e ef 0e 1a 0a 00 11 e7 00 f9
fd 00 f0 f7 df f0 0a f4 e1 0e 13 e3 fc f4 1d 0f 09 19 05 e9 02 1b 1a 10 f4 f8 f6 18 0f fb fe 06
0a 03 13 0e e5 1c 0c 07 e8 e6 0c 09 12 f7 17 fd f8 e7 1e e7 0c e5 f0 16 ea f8 11 fc 02 15 01 18
eb 04 e1 fc f9 15 12 f9 ec 21 fa fb f5 f8 f0 f3 fa ed 12 14 f3 0e 02 ff fa 0a 06 f0 00 ee f7 17
0b 14 fa f5 e3 ec 14 fb 02 ff ef 13 12 11 e8 13 07 f7 eb 0e ec 18 f4 18 01 09 fd ee 0b f4 e5 ee
f0 e4 13 09 f9 e2 ec fd fe e8 03 fd 0f fa f9 de 09 00 01 fa e6 09 06 db ee 19 e6 12 e1 fd f4 f0
09 e7 fb 13 ee e8 00 e8 e6 08 13 13 0d 09 19 14 02 ee 07 e4 e1 0b fd e5 12 f5 f7 ec e5 12 09 ec
ef fe 1a 16 1a fd 1d 1b f4 f7 03 19 1a e1 14 1b 11 17 fb 0c 10 f1 f8 de 0c ea e4 1a f3 1b 0e 13
df 04 04 e1 dd e8 fb f3 eb ea fc ec f8 e0 e7 e0 f0 f1 0e f2 e8 03 f8 fe e6 11 e7 e6 e7 0a f6 ea
e8 e3 f3 0b e1 e3 f7 f3 f3 e1 f1 11 fa 0a 06 f2 f4 f9 06 e4 e4 e0 fa 03 fe f4 f4 e4 fe 17 f7 14
e1 0a ff 15 e2 10 1c 09 f6 e7 0a 10 0b 13 f4 0d 03 01 1a f3 10 fe 21 f4 e2 e8 1e ef 02 e8 fb f3
f8 f8 16 f5 f9 f5 e2 e2 01 fa e8 e2 e0 03 18 e7 ec 11 fe 0a 0d 08 0c 12 e4 ed e1 16 17 e1 e5 0f
04 ee f3 f2 fa 0f 18 fe 1b e0 1a f6 fc ef 20 0f e6 0a ff fe e3 12 1c 13 0a fb 19 ea dd 12 ee e8
10 0b 09 1d 17 f0 ff f2 f1 19 1e 1a 10 e1 01 f3 eb f8 03 f2 07 f9 14 f3 0d f1 01 ea 05 e7 13 15
12 0e f0 e7 e6 13 14 df 09 f0 02 fb f2 e1 07 08 e8 ee 18 14 e9 fb 0e 04 f9 18 08 ee 1a e5 ed 0a
03 0d eb 0b fc f8 02 e6 14 f2 17 10 1a 04 0f de e5 e8 1f 0c fc 09 ff 11 f0 f6 f4 06 f5 e6 e0 f7
0b 01 01 e8 14 1a f5 07 15 10 f3 f1 e8 13 fb 16 f5 04 e1 ea 03 0f 0f f8 17 02 19 fb 1e f3 12 f6
f6 04 37 04 03 fa fc 0a 00 fe e9 35 f9 db 0a 10 32 f5 eb ea 06 f0 d1 e3 0d f3 e7 e4 ec 36 0e 0c
e1 15 13 0e ee f2 fd 20 f8 11 0d 12 14 1e 04 1e 0b 12 05 ed f8 f3 02 1b e0 1e ef f6 f7 11 02 f7
e3 12 01 f3 08 ef f7 17 fa f8 1a e1 04 08 1d 12 e9 ff 15 04 e4 03 ee 0f 19 f6 f3 ef f3 0f ec f2
17 ea 13 13 ea e1 0c 08 05 f8 e7 e5 0c 17 1c f9 16 1c 1e e8 1a 05 06 e1 0e fa 07 f2 ee f2 00 06
e4 0e f1 15 16 15 f8 f2 0b 1d f1 15 eb 06 e9 01 16 03 12 00 1c 02 ec 06 f5 f2 00 14 18 1d 07 f6
fc f1 d8 02 e6 e5 fe 11 01 1d 24 00 05 f8 00 de f9 eb 12 f6 14 ff 0a e0 ea fd fc e5 ff e8 e3 fe
0c e7 07 1f 03 0e 02 f3 e7 fb e6 19 ee 17 ea e0 18 ea 0b 01 f2 e2 03 e4 0e e7 09 ff e4 13 01 17
04 f9 00 0a ee 03 f4 e3 01 e6 0a eb e2 e3 f3 03 08 f9 e3 f0 13 06 ff fa fe e0 1a 0e 01 ed e7 ee
f4 f5 f5 f0 ec ee e5 ea 11 1d f3 19 f9 15 06 1c 07 fb 0f 1a ea 0f 0e 03 15 1e ed 0a f2 0c 0f fe
ef 0d 18 09 e7 f4 1a f7 e1 09 e4 1b f7 17 f6 e4 09 e8 e1 f8 fe fb fc 15 fc e5 1a 08 02 04 e6 f7
fb f0 17 1d 10 de 25 d7 e3 f0 fa fd e9 1a f8 03 1a 04 f8 03 f9 09 ff d9 1f ea 0c 05 18 ea 06 f0
e6 10 01 f2 13 fd e8 f0 0e 0a e9 e5 12 f7 08 0e ef 01 0a df 14 0d dc fe e1 15 09 e5 e9 0a fd 07
fa f7 20 10 0f f6 f7 e7 08 eb 20 00 fb e8 f9 00 e6 1d e2 f3 e0 fb 09 f1 ec 02 03 1a 09 f1 15 17
ff fc 14 19 f5 20 16 ee f1 16 e5 09 df eb 1b f8 ea 1c fd 0f 0c e4 15 e2 eb 00 fa 11 1b f7 07 f9
f7 15 fd de 0f 0a e5 0a f5 ea 00 ff 11 ff 26 f7 d9 05 1d 19 f6 32 e2 e2 13 fd f6 e7 05 fd 13 10
df e5 07 0c f6 e1 1a e6 fb f7 17 19 fe f2 ef 1b 0a f2 1f 08 00 0c 0d eb 10 1c f2 ff 13 01 ed ec
ff 1a e2 29 0d e7 e7 06 04 ef e9 fa e8 1b fe 10 e9 fa 01 01 f4 0c 0e fc 14 19 05 1c 14 f2 0f ee
f4 ea 05 20 ef e6 ec fe e9 0e 0b 06 f2 f8 ec ed 17 fa f8 18 18 e2 07 e9 e1 14 0e e5 ef 00 0f fb
eb 00 d6 f7 eb 0a 18 20 1a 0e 2d 10 e5 06 1c fb 00 eb 1a 15 25 22 e4 0c ea 0f 00 e1 fe e9 10 f4
e0 e2 05 03 f4 f3 01 27 e3 f3 f2 ef f6 ec 0c 03 11 db e3 01 15 0c ea 0e ed 06 f6 e4 ef ff fd 0d
0c ff fb 07 15 08 f0 fe e3 e6 11 0b f9 fc 13 eb 15 1d 00 f7 08 21 33 e4 06 01 df 1a ea f6 ef e5
11 f2 df f7 dc 04 0d 0c 18 e8 fd 02 0d e7 0c 13 03 f5 21 01 f0 18 15 18 03 07 eb f2 f3 ea f7 10
18 0c eb fb 01 1e 09 e2 10 0d 01 15 15 eb 16 0e 1d 15 f0 f9 f8 f8 05 1b fb 19 18 1e eb e5 ff 09
e1 fb 0d 1e f7 06 11 0b 06 01 fd 05 fc 03 ef 03 e4 e8 0c ed f9 f7 26 04 0d 06 ec 18 18 03 fe e6
ed 09 0e 17 fe e9 06 01 02 f0 e1 09 df 09 f4 10 0e f4 04 06 f6 ec da df f6 df e9 e9 f5 1d e9 f0
e5 f7 15 00 e7 ea f0 02 e6 e4 f4 e7 fa ea eb f2 05 05 f6 0d 03 f3 08 eb 00 05 00 f4 ff fc 12 09
f1 e5 1a 13 ea fa 00 16 ed 1c e0 f5 f7 e9 15 18 1d 08 f5 fe 06 f0 03 1b 0c f9 1b ee f8 0f e9 ee
01 0b f8 04 e9 12 ed ee fc 16 00 16 16 17 19 17 f1 06 00 f2 e9 e7 1b ec e9 05 1e e7 16 10 13 06
f1 15 e7 f8 18 05 e5 fa 12 ec fe e5 e6 ff e2 e4 e9 e8 0e e4 09 0b 27 0e 01 ec 07 ed e8 ef 04 e5
16 0f 17 f6 fc 19 18 ed ed ef 19 f4 e0 05 0a 10 ea 15 e0 e7 e8 13 f2 e9 01 1c 09 ff 1a 04 f4 0f
e9 16 e9 08 f4 06 fd 16 ff f0 f4 15 e3 e4 f3 05 eb f2 10 0c f2 18 f4 14 13 0d 1e ee 03 ea f9 1d
07 fc e3 01 ea 0e 03 18 0b 13 08 0d f5 1d 07 09 05 09 10 fe e2 06 e8 e5 11 f7 10 14 ed 0c 1a 04
f7 e3 01 e7 07 e4 0a 16 e3 01 ea e7 16 ec fb 18 cf f4 10 fd e5 12 fc 06 ee 0c f5 ea e9 06 14 fa
