// dense1 weights row-major i*32+j int8
04
1a
19
11
ee
f2
f9
21
fc
05
08
fd
20
08
ea
f0
1b
02
05
f0
00
e2
07
1c
1c
06
12
22
f9
ef
f9
f7
09
f6
f1
1e
e1
02
0e
02
06
de
fe
08
1f
1e
1d
e1
e5
08
eb
ce
24
d6
21
f8
15
15
fc
f2
fc
f9
ed
fa
08
11
ef
f8
e9
de
e8
ed
e0
e9
f4
ed
03
1a
f1
02
28
e7
fe
e5
ee
02
d8
ff
eb
e1
08
d9
db
00
ec
e4
14
dc
09
11
dd
e6
e5
22
e5
1a
f3
ee
f4
1f
04
02
f1
d5
e9
fa
14
f3
1e
16
fd
26
13
ff
e6
d1
08
f9
0f
ee
db
d3
33
01
26
ea
d6
1f
0c
29
09
32
29
18
f8
fc
14
dd
fb
f1
20
23
fe
2f
1e
11
44
0c
1e
21
f4
07
da
d7
23
1b
e7
24
fb
06
ef
10
e2
1a
eb
02
ff
0c
0b
df
0b
ea
e6
14
e4
05
04
e8
ee
e4
03
ef
ed
17
1d
d4
f6
0f
ec
ed
14
07
34
fc
fa
bb
ec
f6
03
30
ed
db
02
f4
1e
0b
09
dc
fd
da
f6
cd
f0
10
f0
d8
e4
06
e8
da
f0
07
10
ed
26
10
0c
0c
00
27
ea
17
eb
01
e6
07
d4
14
27
f8
1f
f4
04
0f
13
06
ea
07
27
1c
fd
2d
ee
ec
13
fc
1d
e5
20
fb
14
0f
17
11
fb
23
1f
f2
22
e1
0b
ee
17
12
01
fa
05
0e
07
f8
26
ef
b6
f0
0e
20
f7
e8
0a
16
ed
06
11
f8
e6
1c
ed
14
ee
dc
d3
1d
ee
04
d8
ef
df
24
2a
1e
52
e3
ff
07
ef
e7
0a
0a
03
d7
0c
11
1f
df
d3
f6
05
fd
de
16
df
1e
24
22
0d
e3
11
e6
d5
17
f1
0b
0b
03
fc
ff
e9
d8
e2
e7
22
03
0e
04
f8
cc
d1
0e
07
06
dc
23
fa
f5
f7
da
15
ce
24
0f
f2
fc
bd
12
ef
fe
e3
23
35
e7
13
e3
35
0d
03
12
02
ce
f6
19
0f
00
ee
0d
b8
24
fd
17
04
db
ff
05
08
22
e6
0e
0d
e0
01
08
de
d1
e7
f6
f2
f6
0f
e0
eb
00
0c
e2
fe
0c
fc
f0
f5
ee
e0
db
eb
15
dc
f3
eb
11
ef
e5
f8
de
e1
1a
f6
f5
d5
19
09
f1
1b
1a
dd
1e
d6
22
da
01
f5
1b
e9
cf
e0
19
ef
09
0c
12
0c
ea
e8
0d
fb
f5
e2
22
ef
d4
de
fe
fa
fa
06
ef
e0
e7
fc
de
28
09
f3
b2
fd
d2
14
da
0f
f0
f1
d9
13
12
18
0b
18
e6
f1
10
e0
db
0e
fb
02
1e
e3
0e
e4
dd
10
ee
ed
fe
03
ea
02
d3
20
0f
10
f0
f1
0a
0a
e2
1c
e6
f4
23
f8
d7
14
fc
13
ed
ec
03
2e
f4
15
f9
e8
de
0d
d4
27
f2
02
df
fd
fb
10
e7
dc
11
04
d4
f3
f7
10
04
db
d9
01
15
f5
0f
f9
e6
15
e2
ee
df
e6
19
0b
f8
f3
ea
11
d7
16
26
24
d6
0a
11
f3
f7
08
f1
16
ec
f8
f3
d2
e3
15
ea
f8
dd
fd
e7
19
01
08
06
f8
f3
0e
32
e2
1e
00
12
0a
e8
f1
15
f1
f4
ff
fa
d9
06
04
d7
c4
0d
1c
da
06
df
f4
11
0c
12
f3
17
dc
d6
1c
00
dc
f6
2f
f1
f7
00
ee
e8
e0
0b
e2
03
f6
fd
24
d5
e1
eb
f4
03
d9
12
dd
ef
07
e9
0d
0f
1d
c7
dc
db
15
27
f7
14
dc
1a
f9
e7
cf
d7
0d
ec
fb
d7
e7
01
16
1a
18
d8
dd
e9
e6
f9
02
dd
ec
0a
e7
c3
18
e7
26
0e
25
1f
fd
da
e5
0b
fd
c3
0c
df
04
21
27
da
f5
d6
da
f5
df
15
d4
e9
e6
f4
00
ea
f5
e5
00
c7
0c
e6
14
19
f5
f1
04
0f
f7
ef
0a
ec
dd
1a
fd
09
c7
cf
f6
01
e6
de
fc
fd
e3
0f
e9
da
06
fb
e2
c7
27
d1
20
fe
d9
1d
10
de
fc
f1
19
fc
fe
e7
e2
da
15
10
de
05
00
19
21
23
13
06
d5
f1
17
c3
ec
aa
0d
1c
00
05
dd
03
e4
e7
04
fd
ed
db
