// dense2 weights row-major i*3+j int8
eb
ff
1a
18
f0
10
0d
06
d0
26
0c
e1
16
07
e4
13
e6
e7
eb
fb
f5
1b
ee
1d
e6
f6
dc
ff
d7
e8
0b
0d
e4
f6
13
23
0c
d4
d0
f2
c1
fd
e2
e2
e2
d4
d5
d0
22
0b
ea
dd
07
da
cf
07
05
0d
2f
f0
02
fb
00
e5
e8
e6
da
03
12
28
15
34
15
2a
2c
2d
1b
33
0e
ee
19
07
d1
e4
15
ec
0d
11
12
12
d5
d1
0f
23
0b
25
